{
  "<S>": 0, 
  "</S>": 1, 
  "<PAD>": 2, 
  "▁-": 3, 
  "▁": 4, 
  "M": 5, 
  "": 6, 
  "-": 7, 
  ")": 8, 
  "▁H": 9, 
  "&": 10, 
  "▁(": 11, 
  "U": 12, 
  "/": 13, 
  "T": 14, 
  "<": 15, 
  "s": 16, 
  "シャツ": 17, 
  "▁T": 18, 
  "L": 19, 
  "A": 20, 
  "▁Top": 21, 
  "▁Damen": 22, 
  "▁Dress": 23, 
  "W": 24, 
  "ワンピース": 25, 
  "▁mit": 26, 
  "V": 27, 
  ",": 28, 
  "S": 29, 
  "2": 30, 
  "]": 31, 
  "e": 32, 
  "▁Dam": 33, 
  "▁[": 34, 
  "▁V": 35, 
  "▁Black": 36, 
  "▁Shirt": 37, 
  "'": 38, 
  "GANT": 39, 
  "▁Print": 40, 
  "・": 41, 
  "▁Sleeve": 42, 
  "色": 43, 
  "shirt": 44, 
  "プルオーバー": 45, 
  "ブラウス": 46, 
  "▁A": 47, 
  "a": 48, 
  "▁Women": 49, 
  "PO": 50, 
  "▁Jacket": 51, 
  "(": 52, 
  ">": 53, 
  "ed": 54, 
  "全": 55, 
  "▁Blue": 56, 
  "ニット": 57, 
  "▁Schwarz": 58, 
  "OP": 59, 
  "d": 60, 
  "▁by": 61, 
  "スカート": 62, 
  "▁Jeans": 63, 
  "SK": 64, 
  "★": 65, 
  "▁/": 66, 
  "》": 67, 
  "ネック": 68, 
  "3": 69, 
  "▁《": 70, 
  "with": 71, 
  "▁Short": 72, 
  "カットソー": 73, 
  "G": 74, 
  "▁White": 75, 
  "▁2": 76, 
  "B": 77, 
  "▁Floral": 78, 
  "▁Sukienka": 79, 
  "▁Jersey": 80, 
  "【": 81, 
  "▁メンズ": 82, 
  "Shirt": 83, 
  "▁Levis": 84, 
  "▁Lace": 85, 
  "/(": 86, 
  "▁Long": 87, 
  "ニットプルオーバー": 88, 
  "▁Stripe": 89, 
  "パンツ": 90, 
  "C": 91, 
  "r": 92, 
  "+2027>": 93, 
  "▁C": 94, 
  "▁Svart": 95, 
  "▁aus": 96, 
  "+00": 97, 
  "▁S": 98, 
  "1": 99, 
  "×": 100, 
  "erren": 101, 
  "▁Knit": 102, 
  "カーディガン": 103, 
  "▁★": 104, 
  "▁Neck": 105, 
  "▁Cardigan": 106, 
  "able": 107, 
  "▁&": 108, 
  "▁Printed": 109, 
  "▁*": 110, 
  ".": 111, 
  "▁レディース": 112, 
  "+8932>": 113, 
  "】": 114, 
  "▁Skirt": 115, 
  "コート": 116, 
  "ジャケット": 117, 
  "y": 118, 
  "D": 119, 
  "7": 120, 
  "▁Shorts": 121, 
  "▁Tunic": 122, 
  "▁Navy": 123, 
  "vail": 124, 
  "i": 125, 
  "WAY": 126, 
  "▁z": 127, 
  "免運": 128, 
  "全店": 129, 
  "+": 130, 
  "PT": 131, 
  "▁Name": 132, 
  "5": 133, 
  "件": 134, 
  "▁Slim": 135, 
  "▁Blouse": 136, 
  "P": 137, 
  "先行": 138, 
  "▁No": 139, 
  "注": 140, 
  "受": 141, 
  "▁Tee": 142, 
  "▁Fit": 143, 
  "▁Denim": 144, 
  "▁BEAMS": 145, 
  "元": 146, 
  "n": 147, 
  "▁The": 148, 
  "ZIP": 149, 
  "トップス": 150, 
  "▁Jumper": 151, 
  "E": 152, 
  "▁Trousers": 153, 
  "*": 154, 
  ";": 155, 
  "ManStyle": 156, 
  "R": 157, 
  "t": 158, 
  "er": 159, 
  "¶": 160, 
  "▁Grey": 161, 
  "折": 162, 
  "▁t": 163, 
  "BL": 164, 
  "▁Herr": 165, 
  "▁Men": 166, 
  "o": 167, 
  "▁Sweater": 168, 
  "▁DRESS": 169, 
  "▁Skinny": 170, 
  "\\": 171, 
  "▁3": 172, 
  "恤": 173, 
  "▁Kleid": 174, 
  "N": 175, 
  "ワイドパンツ": 176, 
  "パーカー": 177, 
  "組合": 178, 
  "▁a": 179, 
  "プリント": 180, 
  "▁F": 181, 
  "TOP": 182, 
  "ブルゾン": 183, 
  "▁Only": 184, 
  "▁in": 185, 
  "4": 186, 
  "▁B": 187, 
  "▁G": 188, 
  "タイトスカート": 189, 
  "O": 190, 
  "▁Hem": 191, 
  "65": 192, 
  "▁i": 193, 
  "▁レース": 194, 
  "▁Detail": 195, 
  "ORead": 196, 
  "▁Trim": 197, 
  "ロゴ": 198, 
  "SS": 199, 
  "▁Product": 200, 
  "▁Coat": 201, 
  "XL": 202, 
  "▁Imag": 203, 
  "▁Dark": 204, 
  "▁Vest": 205, 
  "▁dress": 206, 
  "ボーダー": 207, 
  "▁Pants": 208, 
  "上市": 209, 
  "▁Front": 210, 
  "▁W": 211, 
  "+2198>】": 212, 
  "▁P": 213, 
  "デニム": 214, 
  "▁Dunkelblau": 215, 
  "▁Sweatshirt": 216, 
  "長袖": 217, 
  "◆": 218, 
  "滿": 219, 
  "▁TOP": 220, 
  "再": 221, 
  "-1": 222, 
  "チュニック": 223, 
  "秋裝": 224, 
  "$399": 225, 
  "▁Zip": 226, 
  "▁Red": 227, 
  "▁ボーダー": 228, 
  "TOPS": 229, 
  "▁【": 230, 
  "TEE": 231, 
  "▁MA": 232, 
  "▁Co": 233, 
  "ニットカーディガン": 234, 
  "▁med": 235, 
  "in": 236, 
  "▁Sleeveless": 237, 
  "▁L": 238, 
  "▁CHILLE": 239, 
  "任選": 240, 
  "4>": 241, 
  "▁ストライプ": 242, 
  "▁Stretch": 243, 
  "▁Cotton": 244, 
  "フレアスカート": 245, 
  "▁Light": 246, 
  "▁BLUE": 247, 
  "▁Pink": 248, 
  "レース": 249, 
  "▁<": 250, 
  "8": 251, 
  "▁and": 252, 
  "▁FIVE": 253, 
  "+201": 254, 
  "半袖": 255, 
  "▁TEE": 256, 
  "▁High": 257, 
  "Print": 258, 
  "風格": 259, 
  "ing": 260, 
  "SH": 261, 
  "▁Kim": 262, 
  "_": 263, 
  "ライン": 264, 
  "▁◆": 265, 
  "▁コットン": 266, 
  "▁D": 267, 
  "ロング": 268, 
  "分袖": 269, 
  "▁ANAP": 270, 
  "ight": 271, 
  "▁Back": 272, 
  "▁デニム": 273, 
  "▁半袖": 274, 
  "▁長袖": 275, 
  "MA": 276, 
  "F": 277, 
  "ネックニット": 278, 
  "タンクトップ": 279, 
  "▁Pack": 280, 
  "TE": 281, 
  "BC": 282, 
  "▁Plain": 283, 
  "9": 284, 
  "▁Bluzka": 285, 
  "コットン": 286, 
  "▁Regular": 287, 
  "▁ニット": 288, 
  "ストレッチ": 289, 
  "ストライプ": 290, 
  "▁Multi": 291, 
  "▁Cropped": 292, 
  "▁3/4": 293, 
  "天竺": 294, 
  "▁Maxi": 295, 
  "】【": 296, 
  "チェック": 297, 
  "6": 298, 
  "▁N": 299, 
  "l": 300, 
  "▁Y": 301, 
  "▁BO": 302, 
  "▁Briefs": 303, 
  "▁ビームス": 304, 
  "▁WAY": 305, 
  "399": 306, 
  "JK": 307, 
  "reg": 308, 
  "▁Embroidered": 309, 
  "▁Pocket": 310, 
  "CD": 311, 
  "キャバリア": 312, 
  "ted": 313, 
  "タック": 314, 
  "あす楽対応": 315, 
  "▁Chiffon": 316, 
  "\"【": 317, 
  "▁Jumpsuit": 318, 
  "▁ET": 319, 
  "▁スカート": 320, 
  "▁Hoodie": 321, 
  "▁Green": 322, 
  "▁En": 323, 
  "▁Set": 324, 
  "▁Crew": 325, 
  "▁5": 326, 
  "カーデ": 327, 
  "▁箱子": 328, 
  "▁チェック": 329, 
  "ロングカーディガン": 330, 
  "▁Leg": 331, 
  "▁CavariA": 332, 
  "▁Jean": 333, 
  "▁パンツ": 334, 
  "ショートパンツ": 335, 
  "▁K": 336, 
  "▁ワンピース": 337, 
  "フレア": 338, 
  "カット": 339, 
  "ベスト": 340, 
  "ワイド": 341, 
  "▁7": 342, 
  "▁Check": 343, 
  "Y": 344, 
  "▁自由": 345, 
  "▁R": 346, 
  "on": 347, 
  "▁print": 348, 
  "BIG": 349, 
  "▁Blazer": 350, 
  "08": 351, 
  "▁b": 352, 
  "\"": 353, 
  "m": 354, 
  "▁ストレッチ": 355, 
  "▁Wrap": 356, 
  "▁Jacquard": 357, 
  "刺繍": 358, 
  "カラー": 359, 
  "▁Melange": 360, 
  "▁Shoulder": 361, 
  "LS": 362, 
  "▁花柄": 363, 
  "shorts": 364, 
  "▁not": 365, 
  "es": 366, 
  "▁Polo": 367, 
  "▁トップス": 368, 
  "▁Off": 369, 
  "▁In": 370, 
  "▁Vintage": 371, 
  "▁Vit": 372, 
  "neck": 373, 
  "+0142>": 374, 
  "▁Tie": 375, 
  "▁Oxford": 376, 
  "▁Satin": 377, 
  "+0178>": 378, 
  "amp": 379, 
  "▁Crochet": 380, 
  "▁TShirt": 381, 
  "▁Ins": 382, 
  "▁BITTER": 383, 
  "FC": 384, 
  "オールインワン": 385, 
  "リボン": 386, 
  "▁Crepe": 387, 
  "ポケット": 388, 
  "ドレス": 389, 
  "▁Indigo": 390, 
  "▁Straight": 391, 
  "▁12": 392, 
  "▁プリント": 393, 
  "テーパードパンツ": 394, 
  "▁Womens": 395, 
  "▁Pyjama": 396, 
  "デザイン": 397, 
  "フラワー": 398, 
  "▁w": 399, 
  "ネックプルオーバー": 400, 
  "▁Wei": 401, 
  "ジャン": 402, 
  "風": 403, 
  "▁Tank": 404, 
  "フリル": 405, 
  "▁Pullover": 406, 
  "Tee": 407, 
  "▁Bluza": 408, 
  "▁SHIRT": 409, 
  "▁blue": 410, 
  "en": 411, 
  "▁ベーシック": 412, 
  "▁Parka": 413, 
  "柄": 414, 
  "▁Crop": 415, 
  "▁Leggings": 416, 
  "▁Cold": 417, 
  "ubi": 418, 
  "▁4": 419, 
  "▁Super": 420, 
  "裏毛": 421, 
  "21": 422, 
  "リブ": 423, 
  "▁Allover": 424, 
  "▁フラワー": 425, 
  "TAIJI": 426, 
  "!": 427, 
  "▁Sport": 428, 
  "▁Button": 429, 
  "▁Waist": 430, 
  "ガウチョパンツ": 431, 
  "▁Pant": 432, 
  "▁St": 433, 
  "Neck": 434, 
  "▁Bluse": 435, 
  "▁Midi": 436, 
  "Levi": 437, 
  "▁Levi": 438, 
  "▁Textured": 439, 
  "▁BIG": 440, 
  "▁Linen": 441, 
  "ツイル": 442, 
  "+62": 443, 
  "▁Ks": 444, 
  "▁Met": 445, 
  "▁Ladies": 446, 
  "スウェット": 447, 
  "ワンピ": 448, 
  "女款": 449, 
  "way": 450, 
  "▁1": 451, 
  "▁One": 452, 
  "nning": 453, 
  "▁Techichi": 454, 
  "▁und": 455, 
  "▁Graphic": 456, 
  "▁Fleece": 457, 
  "ショーツ": 458, 
  "▁Moda": 459, 
  "▁Embellished": 460, 
  "▁shirt": 461, 
  "オフショル": 462, 
  "テーラードジャケット": 463, 
  "+2122>": 464, 
  "▁Mesh": 465, 
  "▁Faux": 466, 
  "休閒": 467, 
  "ー": 468, 
  "CT": 469, 
  "▁Wool": 470, 
  "+7": 471, 
  "~2": 472, 
  "▁ビーミング": 473, 
  "▁r": 474, 
  "▁Blau": 475, 
  "▁Sequin": 476, 
  "WEB": 477, 
  "ス": 478, 
  "プリーツスカート": 479, 
  "ashion": 480, 
  "▁Bomber": 481, 
  "▁JACKET": 482, 
  "▁Classic": 483, 
  "ロン": 484, 
  "Kleid": 485, 
  "タンク": 486, 
  "ong": 487, 
  "▁Pull": 488, 
  "▁fit": 489, 
  "0>": 490, 
  "▁I": 491, 
  "。": 492, 
  "▁リブ": 493, 
  "▁Cut": 494, 
  "▁Panel": 495, 
  "▁Hooded": 496, 
  "▁TR": 497, 
  "▁SLEEVE": 498, 
  "▁クルーネック": 499, 
  "▁ロゴ": 500, 
  "ussy": 501, 
  "▁Beige": 502, 
  "▁J": 503, 
  "タックスカート": 504, 
  "ニットトップス": 505, 
  "hose": 506, 
  "▁KNIT": 507, 
  "▁Logo": 508, 
  "▁フリル": 509, 
  "▁Marine": 510, 
  "▁STRIPE": 511, 
  "▁BROWNY": 512, 
  "▁無地": 513, 
  "ショート": 514, 
  "セーター": 515, 
  "の": 516, 
  "▁タック": 517, 
  "▁jacket": 518, 
  "+0105>": 519, 
  "b": 520, 
  "th": 521, 
  "▁SKIRT": 522, 
  "▁刺繍": 523, 
  "▁SS": 524, 
  "na": 525, 
  "▁Collar": 526, 
  "▁Nina": 527, 
  "ポンチ": 528, 
  "限定": 529, 
  "▁Mens": 530, 
  "シャツワンピース": 531, 
  "▁ロング": 532, 
  "▁ウール": 533, 
  "男款": 534, 
  "▁Trouser": 535, 
  "▁\"": 536, 
  "▁ノーカラー": 537, 
  "~": 538, 
  "▁sukienka": 539, 
  "▁Kurze": 540, 
  "▁Bikini": 541, 
  "▁Pro": 542, 
  "▁シンプル": 543, 
  "チェスターコート": 544, 
  "ja": 545, 
  "▁E": 546, 
  "▁Z": 547, 
  "▁DENIM": 548, 
  "MIX": 549, 
  "▁Wide": 550, 
  "H": 551, 
  "▁Leonard": 552, 
  "タイト": 553, 
  "切替": 554, 
  "▁Bra": 555, 
  "Gemustert": 556, 
  "▁Rock": 557, 
  "ノーカラージャケット": 558, 
  "系": 559, 
  "▁Scoop": 560, 
  "kleid": 561, 
  "▁Weis": 562, 
  "▁ビター": 563, 
  "▁Pattern": 564, 
  "クルーネック": 565, 
  "▁LONG": 566, 
  "▁top": 567, 
  "ドルマン": 568, 
  "▁c": 569, 
  "▁プルオーバー": 570, 
  "キャミソール": 571, 
  "▁裏毛": 572, 
  "▁ポンチ": 573, 
  "▁Ray": 574, 
  "▁ジョーゼット": 575, 
  "▁Pencil": 576, 
  "プリーツ": 577, 
  "▁・": 578, 
  "花柄": 579, 
  "▁Khaki": 580, 
  "EDWIN": 581, 
  "▁Tech": 582, 
  "▁Rose": 583, 
  "サイズ": 584, 
  "ハイネック": 585, 
  "優惠": 586, 
  "▁Jo": 587, 
  "▁カットソー": 588, 
  "▁Bottoms": 589, 
  "al": 590, 
  "ジャガード": 591, 
  "▁リネン": 592, 
  "ニットワンピース": 593, 
  "▁floral": 594, 
  "ガウン": 595, 
  "▁Leather": 596, 
  "+017": 597, 
  "▁OP": 598, 
  "トレンチコート": 599, 
  "▁Dunkelgrau": 600, 
  "ウール": 601, 
  "デニムパンツ": 602, 
  "【01": 603, 
  "ビジュー": 604, 
  "topp": 605, 
  "▁LOGO": 606, 
  "▁Rib": 607, 
  "AC": 608, 
  "▁Edge": 609, 
  "長": 610, 
  "▁Dot": 611, 
  "切り替え": 612, 
  "61>": 613, 
  "▁Mini": 614, 
  "▁Cloth": 615, 
  "ロングスカート": 616, 
  "【09": 617, 
  "ドッキングワンピース": 618, 
  "▁フリンジ": 619, 
  "▁グレンチェック": 620, 
  "▁Twill": 621, 
  "▁ラメ": 622, 
  "▁Side": 623, 
  "▁Gemusterte": 624, 
  "melerad": 625, 
  "▁Gold": 626, 
  "▁Evening": 627, 
  "▁Chemise": 628, 
  "フリンジ": 629, 
  "▁long": 630, 
  "ジャージ": 631, 
  "▁Ribb": 632, 
  "+0119>": 633, 
  "任": 634, 
  "▁Animal": 635, 
  "▁ハイネック": 636, 
  "▁Lange": 637, 
  "Shoulder": 638, 
  "meliert": 639, 
  "▁im": 640, 
  "▁Ankle": 641, 
  "▁skirt": 642, 
  "▁2-": 643, 
  "▁BACK": 644, 
  "ポロシャツ": 645, 
  "▁MAMA": 646, 
  "▁NECK": 647, 
  "▁Wonder": 648, 
  "袖": 649, 
  "▁ワイド": 650, 
  "▁Solid": 651, 
  "▁Kort": 652, 
  "▁of": 653, 
  "▁LACE": 654, 
  "ギャザー": 655, 
  "▁Low": 656, 
  "リブニット": 657, 
  "▁ウエストリボン": 658, 
  "▁l": 659, 
  "スキッパーシャツ": 660, 
  "▁anapmimpi": 661, 
  "クロス": 662, 
  "クロップドパンツ": 663, 
  "クルー": 664, 
  "ベーシック": 665, 
  "K": 666, 
  "ie": 667, 
  "▁シフォン": 668, 
  "▁m": 669, 
  "▁Spodnica": 670, 
  "mix": 671, 
  "de": 672, 
  "▁SWEAT": 673, 
  "▁Max": 674, 
  "ジョーゼット": 675, 
  "▁Camisole": 676, 
  "▁Scrub": 677, 
  "c": 678, 
  "▁バックリボン": 679, 
  "▁BOY": 680, 
  "キャミ": 681, 
  "シフォン": 682, 
  "▁バンド": 683, 
  "▁別注": 684, 
  "▁Silk": 685, 
  "▁リボン": 686, 
  "15": 687, 
  "we": 688, 
  "サテン": 689, 
  "印花": 690, 
  "▁Morkbla": 691, 
  "16)": 692, 
  "ケーブル": 693, 
  "▁TC": 694, 
  "▁サテン": 695, 
  "J": 696, 
  "▁リバーシブル": 697, 
  "短": 698, 
  "▁Tunika": 699, 
  "潮流嚴選": 700, 
  "▁De": 701, 
  "I": 702, 
  "▁ZIP": 703, 
  "ac": 704, 
  "▁Van": 705, 
  "▁Oversized": 706, 
  "▁d": 707, 
  "フレアワンピース": 708, 
  "▁カット": 709, 
  "888": 710, 
  "▁スウェット": 711, 
  "less": 712, 
  "▁Frill": 713, 
  "▁Velvet": 714, 
  "▁Bib": 715, 
  "▁Puderrosa": 716, 
  "レースアップ": 717, 
  "ton": 718, 
  "▁Asymmetric": 719, 
  "▁knit": 720, 
  "▁Mid": 721, 
  "▁Up": 722, 
  "▁Soft": 723, 
  "▁Woven": 724, 
  "▁Hose": 725, 
  "▁trousers": 726, 
  "ニットソー": 727, 
  "▁denim": 728, 
  "サロペット": 729, 
  "h": 730, 
  "▁Olive": 731, 
  "▁PRINT": 732, 
  "▁O": 733, 
  "パーカ": 734, 
  "▁チェック柄": 735, 
  "スリーブ": 736, 
  "▁バイカラー": 737, 
  "大きな": 738, 
  "無地": 739, 
  "スラブ": 740, 
  "▁Naturwei": 741, 
  "スキッパー": 742, 
  "▁Drape": 743, 
  "▁INTERPLANET": 744, 
  "▁コーデュロイ": 745, 
  "TR": 746, 
  "x": 747, 
  "短袖": 748, 
  "▁Trucker": 749, 
  "預購": 750, 
  "didas": 751, 
  "0": 752, 
  "▁タイプライター": 753, 
  "▁'": 754, 
  "▁綿麻": 755, 
  "▁Length": 756, 
  "robe": 757, 
  "▁ベルト付き": 758, 
  "ネックニットプルオーバー": 759, 
  "リネン": 760, 
  "▁Design": 761, 
  "▁ノースリーブ": 762, 
  "ノースリ": 763, 
  "▁sleeve": 764, 
  "▁カラー": 765, 
  "▁Spitze": 766, 
  "加大尺碼": 767, 
  "▁BY": 768, 
  "▁MIX": 769, 
  "▁Pleated": 770, 
  "ED": 771, 
  "▁shoulder": 772, 
  "▁Lauren": 773, 
  "ケーブルニット": 774, 
  "Hilfiger": 775, 
  "▁Hope": 776, 
  "マキシワンピース": 777, 
  "SHIRT": 778, 
  "花": 779, 
  "...": 780, 
  "▁フラワープリント": 781, 
  "▁TOPS": 782, 
  "大きいサイズ": 783, 
  "wear": 784, 
  "タートル": 785, 
  "▁Tights": 786, 
  "▁X": 787, 
  "付": 788, 
  "><": 789, 
  "チュール": 790, 
  "▁結婚式": 791, 
  "▁デザイン": 792, 
  "▁ベルト付": 793, 
  "17": 794, 
  "▁Fur": 795, 
  "ギャザースカート": 796, 
  "▁裏起毛": 797, 
  "♪": 798, 
  "ネック半袖": 799, 
  "699": 800, 
  "▁BLACK": 801, 
  "▁ベロア": 802, 
  "▁Paisley": 803, 
  "▁Chino": 804, 
  "チェックシャツ": 805, 
  "▁シャギー": 806, 
  "配色": 807, 
  "▁Lee": 808, 
  "ノーカラー": 809, 
  "▁ツイル": 810, 
  "▁Metallic": 811, 
  "▁Cami": 812, 
  "▁Brown": 813, 
  "フレアースカート": 814, 
  "AW": 815, 
  "+20": 816, 
  "▁プリーツ": 817, 
  "ガウチョ": 818, 
  "▁COAT": 819, 
  "▁ワイドパンツ": 820, 
  "▁Crewneck": 821, 
  "▁Double": 822, 
  "▁JUMPER": 823, 
  "▁Petite": 824, 
  "▁Prep": 825, 
  "▁Jerseykleid": 826, 
  "イージーパンツ": 827, 
  "▁Tapered": 828, 
  "▁Fine": 829, 
  "▁YY": 830, 
  "▁Sports": 831, 
  "フード": 832, 
  "三色": 833, 
  "[": 834, 
  "▁ブラウス": 835, 
  "pack": 836, 
  "▁Lyocell": 837, 
  "▁People": 838, 
  "プル": 839, 
  "rkblA": 840, 
  "トレーナー": 841, 
  "▁Box": 842, 
  "▁PT": 843, 
  "▁STREET": 844, 
  "▁マルチボーダー": 845, 
  "フレアー": 846, 
  "BD": 847, 
  "▁Blend": 848, 
  "X": 849, 
  "▁Sweat": 850, 
  "日韓": 851, 
  "▁stripe": 852, 
  "▁Jerseyshirt": 853, 
  "ドット": 854, 
  "▁レースアップ": 855, 
  "▁II": 856, 
  "ル": 857, 
  "man": 858, 
  "接": 859, 
  "マキシ": 860, 
  "SOMETHING": 861, 
  "▁配色": 862, 
  "▁RIB": 863, 
  "▁PANTS": 864, 
  "▁Basic": 865, 
  "マキシスカート": 866, 
  "クロップド": 867, 
  "▁Biker": 868, 
  "▁ハイウエスト": 869, 
  "799": 870, 
  "JQ": 871, 
  "▁ボトルネック": 872, 
  "ストレッチパンツ": 873, 
  "付き": 874, 
  "▁Ljus": 875, 
  "▁Flower": 876, 
  "CO": 877, 
  "nity": 878, 
  "z": 879, 
  "▁Michel": 880, 
  "ボーダーカットソー": 881, 
  "▁ジャケット": 882, 
  "レディース": 883, 
  "▁Quilt": 884, 
  "▁Hellblau": 885, 
  "▁オフショル": 886, 
  "▁Sz": 887, 
  "▁Sp": 888, 
  "ラメ": 889, 
  "knit": 890, 
  "▁Cream": 891, 
  "ダウンコート": 892, 
  "▁Joggers": 893, 
  "▁Web": 894, 
  "non": 895, 
  "▁Full": 896, 
  "01": 897, 
  "▁Athletic": 898, 
  "▁Live": 899, 
  "ボリューム": 900, 
  "▁ビジュー": 901, 
  "▁CD": 902, 
  "▁ケーブル": 903, 
  "▁Longline": 904, 
  "スキニーパンツ": 905, 
  "▁Neon": 906, 
  "▁Contrast": 907, 
  "長袖シャツ": 908, 
  "ワッフル": 909, 
  "ボーダープルオーバー": 910, 
  "▁ワイドリブ": 911, 
  "ust": 912, 
  "▁Mr": 913, 
  "▁Sa": 914, 
  "▁coat": 915, 
  "▁Spence": 916, 
  "ynne": 917, 
  "☆": 918, 
  "Tommy": 919, 
  "top": 920, 
  "セットアップ": 921, 
  "小さな": 922, 
  "ビッグ": 923, 
  "ボーダーニット": 924, 
  "▁ミラノリブ": 925, 
  "u": 926, 
  "▁Together": 927, 
  "コーディガン": 928, 
  "▁Marla": 929, 
  "▁ドット": 930, 
  "dnica": 931, 
  "▁ドロップショルダー": 932, 
  "rock": 933, 
  "▁topp": 934, 
  "▁Gerry": 935, 
  "▁Graumeliert": 936, 
  "▁Naturvit": 937, 
  "リバーシブル": 938, 
  "牛仔": 939, 
  "▁LA": 940, 
  "條紋": 941, 
  "▁Isa": 942, 
  "▁レイ": 943, 
  "▁Standard": 944, 
  "ノースリーブワンピース": 945, 
  "PU": 946, 
  "▁スラブ": 947, 
  "▁メンズファッション": 948, 
  "サックワンピース": 949, 
  "▁Under": 950, 
  "▁Block": 951, 
  "12": 952, 
  "▁COTTON": 953, 
  "dry": 954, 
  "▁Boutique": 955, 
  "▁ワッフル": 956, 
  "タックパンツ": 957, 
  "▁Mizrah": 958, 
  "分": 959, 
  "hopper": 960, 
  "ロングカーデ": 961, 
  "ク": 962, 
  "ポケ": 963, 
  "▁Shift": 964, 
  "ミニ": 965, 
  "▁Baumwoll": 966, 
  "nstrad": 967, 
  "▁Lab": 968, 
  "▁Half": 969, 
  "▁Sand": 970, 
  "ノースリーブ": 971, 
  ":": 972, 
  "▁Colour": 973, 
  "Ausschnitt": 974, 
  "¢": 975, 
  "ネックカットソー": 976, 
  "プルオーバ": 977, 
  "ING": 978, 
  "スリット": 979, 
  "trade": 980, 
  "▁ウール混": 981, 
  "▁ギャザー": 982, 
  "▁SK": 983, 
  "▁London": 984, 
  "▁Crag": 985, 
  "▁By": 986, 
  "w": 987, 
  "oz": 988, 
  "▁Mater": 989, 
  "ルーズ": 990, 
  "▁Nicole": 991, 
  "▁Flare": 992, 
  "or": 993, 
  "▁Volant": 994, 
  "▁Brazil": 995, 
  "▁天竺": 996, 
  "▁Susan": 997, 
  "▁Round": 998, 
  "▁フレア": 999, 
  "▁Gown": 1000, 
  "ベロア": 1001, 
  "SET": 1002, 
  "▁(2": 1003, 
  "▁Koszula": 1004, 
  "上衣": 1005, 
  "男": 1006, 
  "▁Water": 1007, 
  "ビスチェ": 1008, 
  "blend": 1009, 
  "▁8": 1010, 
  "▁起毛": 1011, 
  "em": 1012, 
  "▁インディゴ": 1013, 
  "台形スカート": 1014, 
  "ストライプシャツ": 1015, 
  "master": 1016, 
  "七分袖": 1017, 
  "▁Muscle": 1018, 
  "コクーン": 1019, 
  "▁MIMPI": 1020, 
  "▁Jeggings": 1021, 
  "長袖プルオーバー": 1022, 
  "▁袖": 1023, 
  "フリルブラウス": 1024, 
  "ロングワンピース": 1025, 
  "▁k": 1026, 
  "ラップスカート": 1027, 
  "ロングコート": 1028, 
  "▁Western": 1029, 
  "起毛": 1030, 
  "ミニスカート": 1031, 
  "▁10": 1032, 
  "▁Spot": 1033, 
  "ツイード": 1034, 
  "スカーチョ": 1035, 
  "▁短袖": 1036, 
  "▁Deep": 1037, 
  "Gestreift": 1038, 
  "▁New": 1039, 
  "▁Cable": 1040, 
  "▁Armour": 1041, 
  "▁gym": 1042, 
  "日本限定": 1043, 
  "▁夏": 1044, 
  "▁ブラック": 1045, 
  "▁Mo": 1046, 
  "▁ボートネック": 1047, 
  "▁Leopard": 1048, 
  "▁バック": 1049, 
  "▁Pa": 1050, 
  "ネックブラウス": 1051, 
  "衿": 1052, 
  "▁ウエストゴム": 1053, 
  "▁ポケット": 1054, 
  "▁チュール": 1055, 
  "ドッキング": 1056, 
  "▁Gray": 1057, 
  "▁Knicker": 1058, 
  "▁二次会": 1059, 
  "▁Lug": 1060, 
  "ン": 1061, 
  "ノーカラーコート": 1062, 
  "cure": 1063, 
  "+8932>-": 1064, 
  "▁Rin": 1065, 
  "▁melange": 1066, 
  "▁Is": 1067, 
  "shell": 1068, 
  "▁Wrangler": 1069, 
  "ドレープ": 1070, 
  "by": 1071, 
  "▁Seam": 1072, 
  "▁SUKIENKA": 1073, 
  "CF": 1074, 
  "▁jeans": 1075, 
  "▁FLORAL": 1076, 
  "▁Bow": 1077, 
  "ファー": 1078, 
  "▁Ruffle": 1079, 
  "▁ロング丈": 1080, 
  "▁Swing": 1081, 
  "プルパーカー": 1082, 
  "▁Druck": 1083, 
  "▁Butterfly": 1084, 
  "▁p": 1085, 
  "▁Kimono": 1086, 
  "メッシュ": 1087, 
  "▁×": 1088, 
  "▁de": 1089, 
  "▁Crinkle": 1090, 
  "shoulder": 1091, 
  "▁Hellbeige": 1092, 
  "刺": 1093, 
  "▁Cowl": 1094, 
  "(2": 1095, 
  "▁la": 1096, 
  "リ": 1097, 
  "▁ビッグ": 1098, 
  "▁Open": 1099, 
  "pullover": 1100, 
  "▁wmn": 1101, 
  "半袖シャツ": 1102, 
  "▁Flared": 1103, 
  "▁Gucci": 1104, 
  "▁16": 1105, 
  "▁Suede": 1106, 
  "alston": 1107, 
  "▁フロント": 1108, 
  "ミディスカート": 1109, 
  "\\/": 1110, 
  "▁Jacke": 1111, 
  "▁embroider": 1112, 
  "▁Orange": 1113, 
  "▁Zane": 1114, 
  "▁綿": 1115, 
  "▁Marble": 1116, 
  "▁Kurtka": 1117, 
  "skjort": 1118, 
  "▁Assorted": 1119, 
  "▁リネン混": 1120, 
  "▁Feinstrick": 1121, 
  "+0178>/": 1122, 
  "バック": 1123, 
  "ボタン": 1124, 
  "up": 1125, 
  "シャギー": 1126, 
  "▁Gerippte": 1127, 
  "▁カーディガン": 1128, 
  "刺しゅう": 1129, 
  "▁ツイード": 1130, 
  "▁Cargo": 1131, 
  "▁パーティードレス": 1132, 
  "aszcz": 1133, 
  "▁FRONT": 1134, 
  "▁Ronni": 1135, 
  "▁KhakigrA": 1136, 
  "▁Ant": 1137, 
  "The": 1138, 
  "ベルト付": 1139, 
  "▁Bamboo": 1140, 
  "ラグラン": 1141, 
  "▁総柄": 1142, 
  "LOGO": 1143, 
  "ダブル": 1144, 
  "▁Bob": 1145, 
  "▁PiquAc": 1146, 
  "スキニー": 1147, 
  "▁Re": 1148, 
  "k": 1149, 
  "▁Bandeau": 1150, 
  "裏起毛": 1151, 
  "▁Purple": 1152, 
  "▁Macki": 1153, 
  "▁GrA": 1154, 
  "Bluse": 1155, 
  "▁On": 1156, 
  "▁klanning": 1157, 
  "ボトルネック": 1158, 
  "▁Waterfall": 1159, 
  "▁Alice": 1160, 
  "▁Bona": 1161, 
  "▁Silver": 1162, 
  "kjol": 1163, 
  "▁Violet": 1164, 
  "leeved": 1165, 
  "クルーネック半袖": 1166, 
  "▁Arv": 1167, 
  "▁Princess": 1168, 
  "▁フラワーレース": 1169, 
  "潮流": 1170, 
  "▁Egg": 1171, 
  "▁フレアスリーブ": 1172, 
  "ジャカード": 1173, 
  "ウラケ": 1174, 
  "ロングニットカーディガン": 1175, 
  "NS": 1176, 
  "▁black": 1177, 
  "!!": 1178, 
  "▁pink": 1179, 
  "▁Plaid": 1180, 
  "owa": 1181, 
  "▁BASIC": 1182, 
  "コンビネゾン": 1183, 
  "▁TIE": 1184, 
  "ド": 1185, 
  "シャーリング": 1186, 
  "▁sha": 1187, 
  "ic": 1188, 
  "カシュクール": 1189, 
  "レイヤード": 1190, 
  "’": 1191, 
  "二色": 1192, 
  "衫": 1193, 
  "▁CO": 1194, 
  "▁Marl": 1195, 
  "Look": 1196, 
  "Coloured": 1197, 
  "▁Mc": 1198, 
  "▁VP": 1199, 
  "As": 1200, 
  "▁blouse": 1201, 
  "▁Over": 1202, 
  "▁Eve": 1203, 
  "▁CUT": 1204, 
  "▁CREW": 1205, 
  "jacke": 1206, 
  "mmig": 1207, 
  "line": 1208, 
  "18": 1209, 
  "▁white": 1210, 
  "シンプル": 1211, 
  "▁Belted": 1212, 
  "▁Baumwollmix": 1213, 
  "小": 1214, 
  "に": 1215, 
  "▁czarna": 1216, 
  "▁春服": 1217, 
  "04": 1218, 
  "▁PA": 1219, 
  "▁Ruche": 1220, 
  "ロゴプリント": 1221, 
  "▁Grau": 1222, 
  "▁Hood": 1223, 
  "スカンツ": 1224, 
  "ラップ": 1225, 
  "ボートネック": 1226, 
  "バイカラー": 1227, 
  "▁Klein": 1228, 
  "▁Plus": 1229, 
  "加工": 1230, 
  "総柄": 1231, 
  "▁14": 1232, 
  "▁Overlay": 1233, 
  "HIC": 1234, 
  "print": 1235, 
  "▁Hi": 1236, 
  "▁Yellow": 1237, 
  "thony": 1238, 
  "ト": 1239, 
  "tled": 1240, 
  "▁メッシュ": 1241, 
  "mt": 1242, 
  "ミディ": 1243, 
  "▁Nightdress": 1244, 
  "シシュウ": 1245, 
  "BZ": 1246, 
  "素面": 1247, 
  "▁HOODIE": 1248, 
  "KT": 1249, 
  "▁テレコ": 1250, 
  "▁lace": 1251, 
  "カ": 1252, 
  "us": 1253, 
  "ST": 1254, 
  "▁Rolla": 1255, 
  "▁Subti": 1256, 
  "▁Gore": 1257, 
  "▁Graver": 1258, 
  "ヘム": 1259, 
  "▁Rvca": 1260, 
  "▁Hype": 1261, 
  "▁WOOL": 1262, 
  "スカパン": 1263, 
  "▁Boyfriend": 1264, 
  "▁Renee": 1265, 
  "オフショルブラウス": 1266, 
  "▁Cashmere": 1267, 
  "▁Heart": 1268, 
  "BLANC": 1269, 
  "▁Bubble": 1270, 
  "▁SH": 1271, 
  "コーデュロイ": 1272, 
  "▁春": 1273, 
  "▁Comfort": 1274, 
  "byx": 1275, 
  "▁ビームスボーイ": 1276, 
  "▁Perfect": 1277, 
  "▁VEST": 1278, 
  "pt": 1279, 
  "テーパード": 1280, 
  "UP": 1281, 
  "ベルト": 1282, 
  "韓版": 1283, 
  "▁Naturweis": 1284, 
  "ミリタリー": 1285, 
  "▁USA": 1286, 
  "均一價": 1287, 
  "▁Trashed": 1288, 
  "クルーネックニット": 1289, 
  "▁Attitude": 1290, 
  "ty": 1291, 
  "▁MIDI": 1292, 
  "▁jumper": 1293, 
  "ject": 1294, 
  "修身": 1295, 
  "モッズコート": 1296, 
  "▁Sleeves": 1297, 
  "ボア": 1298, 
  "編み": 1299, 
  "▁Art": 1300, 
  "▁na": 1301, 
  "▁Cape": 1302, 
  "コンビ": 1303, 
  "▁Polka": 1304, 
  "セット": 1305, 
  "▁Spitzenkleid": 1306, 
  "ND": 1307, 
  "▁Wear": 1308, 
  "▁Dear": 1309, 
  "フレアスリーブ": 1310, 
  "▁Camel": 1311, 
  "▁Control": 1312, 
  "▁春夏": 1313, 
  "▁Mork": 1314, 
  "ef": 1315, 
  "▁Pailletten": 1316, 
  "ジャージー": 1317, 
  "▁Lux": 1318, 
  "半袖プルオーバー": 1319, 
  "▁FIT": 1320, 
  "▁パーカー": 1321, 
  "+8932>【": 1322, 
  "▁shorts": 1323, 
  "▁カシュクール": 1324, 
  "トッパー": 1325, 
  "▁Thong": 1326, 
  "▁SHORT": 1327, 
  "ON": 1328, 
  "▁La": 1329, 
  "is": 1330, 
  "▁裾": 1331, 
  "ant": 1332, 
  "▁ドレープ": 1333, 
  "▁All": 1334, 
  "rk": 1335, 
  "03": 1336, 
  "▁Body": 1337, 
  "cker": 1338, 
  "使い": 1339, 
  "▁va": 1340, 
  "▁Capri": 1341, 
  "▁UP": 1342, 
  "▁Cross": 1343, 
  "▁Relaxed": 1344, 
  "▁sweatshirt": 1345, 
  "▁レイヤード": 1346, 
  "洗える": 1347, 
  "▁Queen": 1348, 
  "SSE": 1349, 
  "ラインワンピース": 1350, 
  "▁gown": 1351, 
  "▁Bright": 1352, 
  "to": 1353, 
  "▁ギンガムチェック": 1354, 
  "Blo": 1355, 
  "EDIT": 1356, 
  "▁VT": 1357, 
  "▁Weite": 1358, 
  "▁サイド": 1359, 
  "ハーフパンツ": 1360, 
  "ダッフルコート": 1361, 
  "ナ": 1362, 
  "+8": 1363, 
  "▁Spodnie": 1364, 
  "▁CARDIGAN": 1365, 
  "▁bomber": 1366, 
  "+8932>(": 1367, 
  "▁ダブル": 1368, 
  "デニムシャツ": 1369, 
  "▁ニットソー": 1370, 
  "▁ギンガム": 1371, 
  "un": 1372, 
  "▁Suit": 1373, 
  "▁ドルマン": 1374, 
  "▁17": 1375, 
  "▁サイドスリット": 1376, 
  "▁WIDE": 1377, 
  "タートルニット": 1378, 
  "▁☆": 1379, 
  "~3": 1380, 
  "▁Piece": 1381, 
  "Tunika": 1382, 
  "▁スカラップ": 1383, 
  "▁Slip": 1384, 
  "▁3-": 1385, 
  "▁ジャガード": 1386, 
  "▁ビター系": 1387, 
  "02": 1388, 
  "▁Mena": 1389, 
  "ニットベスト": 1390, 
  "▁TORNADO": 1391, 
  "▁Ro": 1392, 
  "▁\\": 1393, 
  "▁We": 1394, 
  "OR": 1395, 
  "▁Tri": 1396, 
  "キリカエ": 1397, 
  "▁TERRA": 1398, 
  "スラックスパンツ": 1399, 
  "▁Down": 1400, 
  "75": 1401, 
  "▁Buffalo": 1402, 
  "TC": 1403, 
  "フェイス": 1404, 
  "an": 1405, 
  "▁ダブルクロス": 1406, 
  "▁Stone": 1407, 
  "▁Longsleeve": 1408, 
  "▁kl": 1409, 
  "le": 1410, 
  "▁スキッパー": 1411, 
  "裾": 1412, 
  "PK": 1413, 
  "▁Ecru": 1414, 
  "▁BLOUSE": 1415, 
  "▁Mantel": 1416, 
  "ringad": 1417, 
  "excit": 1418, 
  "レースプルオーバー": 1419, 
  "▁ko": 1420, 
  "▁フード付き": 1421, 
  "▁Taschen": 1422, 
  "ER": 1423, 
  "ems": 1424, 
  "な": 1425, 
  "▁スリット": 1426, 
  "White": 1427, 
  "▁THE": 1428, 
  "rmal": 1429, 
  "領": 1430, 
  "ful": 1431, 
  "シ": 1432, 
  "バックリボン": 1433, 
  "▁midi": 1434, 
  "▁neck": 1435, 
  "br": 1436, 
  "▁Christmas": 1437, 
  "▁Rosa": 1438, 
  "▁Power": 1439, 
  "▁Shop": 1440, 
  "▁TROUSERS": 1441, 
  "ダウン": 1442, 
  "運動": 1443, 
  "▁linne": 1444, 
  "▁ミリタリー": 1445, 
  "▁Turtleneck": 1446, 
  "ロンパース": 1447, 
  "Z": 1448, 
  "▁夏服": 1449, 
  "▁Sky": 1450, 
  "Randig": 1451, 
  "ブ": 1452, 
  "934": 1453, 
  "モチーフ": 1454, 
  "▁シャーリング": 1455, 
  "▁Charcoal": 1456, 
  "と": 1457, 
  "男裝": 1458, 
  "▁Acid": 1459, 
  "euw": 1460, 
  "▁Vestido": 1461, 
  "《": 1462, 
  "▁30": 1463, 
  "▁Gilet": 1464, 
  "字母": 1465, 
  "▁ショート": 1466, 
  "ETE": 1467, 
  "▁Modal": 1468, 
  "コラボ": 1469, 
  "▁Running": 1470, 
  "▁デニムパンツ": 1471, 
  "ラインスカート": 1472, 
  "▁Lang": 1473, 
  "proof": 1474, 
  "▁Wash": 1475, 
  "▁【5": 1476, 
  "▁JEANS": 1477, 
  "▁総レース": 1478, 
  "▁VELVET": 1479, 
  "▁Leinen": 1480, 
  "口袋": 1481, 
  "10": 1482, 
  "ストレートパンツ": 1483, 
  "▁Nude": 1484, 
  "ロングシャツ": 1485, 
  "イージー": 1486, 
  "SP": 1487, 
  "KA": 1488, 
  "▁裾レース": 1489, 
  "▁green": 1490, 
  "ドロップショルダー": 1491, 
  "レースブラウス": 1492, 
  "折優惠": 1493, 
  "カットプルオーバー": 1494, 
  "▁STANDARD": 1495, 
  "NFL": 1496, 
  "グレンチェック": 1497, 
  "外套": 1498, 
  "デザインカットソー": 1499, 
  "分袖シャツ": 1500, 
  "が": 1501, 
  "BOX": 1502, 
  "05": 1503, 
  "ローン": 1504, 
  "▁Rot": 1505, 
  "▁Bestickte": 1506, 
  "▁ロゴプリント": 1507, 
  "▁Le": 1508, 
  "ペンシルスカート": 1509, 
  "▁20": 1510, 
  "キャミワンピース": 1511, 
  "▁Persian": 1512, 
  "▁ボア": 1513, 
  "ノースリーブブラウス": 1514, 
  "潮流嚴選韓版": 1515, 
  "▁IN": 1516, 
  "素材": 1517, 
  "▁Strap": 1518, 
  "〕": 1519, 
  "分袖プルオーバー": 1520, 
  "デニムスカート": 1521, 
  "▁easy": 1522, 
  "百搭": 1523, 
  "▁Wallows": 1524, 
  "▁Washed": 1525, 
  "▁Star": 1526, 
  "▁so": 1527, 
  "で": 1528, 
  "顯": 1529, 
  "▁Anzug": 1530, 
  "tights": 1531, 
  "▁French": 1532, 
  "▁Hart": 1533, 
  "▁ハイゲージ": 1534, 
  "パイル": 1535, 
  "簡約": 1536, 
  "kl": 1537, 
  "テレコ": 1538, 
  "代": 1539, 
  "恤上衣男裝": 1540, 
  "▁Carol": 1541, 
  "▁Santa": 1542, 
  "RLEY": 1543, 
  "▁レース切替": 1544, 
  "ボレロ": 1545, 
  "heap": 1546, 
  "▁Mock": 1547, 
  "▁HOMME": 1548, 
  "▁フォーマル": 1549, 
  "▁七分袖": 1550, 
  "980-": 1551, 
  "ly": 1552, 
  "▁Medium": 1553, 
  "Nit": 1554, 
  "Sheer": 1555, 
  "+7626>": 1556, 
  "ライト": 1557, 
  "▁gray": 1558, 
  "▁大きいサイズ": 1559, 
  "NQ": 1560, 
  "▁Dip": 1561, 
  "▁変形": 1562, 
  "▁SHOULDER": 1563, 
  "▁GIRL": 1564, 
  "▁Liz": 1565, 
  "▁オフショルダー": 1566, 
  "jack": 1567, 
  "り": 1568, 
  "切り替えワンピース": 1569, 
  "▁Tanktop": 1570, 
  "ハイウエスト": 1571, 
  "パン": 1572, 
  "▁Label": 1573, 
  "▁サーフパンツ": 1574, 
  "blus": 1575, 
  "▁501": 1576, 
  ")7": 1577, 
  "会": 1578, 
  "▁リップル": 1579, 
  "ナイロン": 1580, 
  "チェック柄": 1581, 
  "▁Pilot": 1582, 
  "BEAMS": 1583, 
  "▁レース切り替え": 1584, 
  "シルエット": 1585, 
  "、": 1586, 
  "▁Waistcoat": 1587, 
  "▁Palm": 1588, 
  "▁Coco": 1589, 
  "拉": 1590, 
  "▁水着": 1591, 
  "v": 1592, 
  "▁ブークレ": 1593, 
  "▁ソフト": 1594, 
  "▁Hochman": 1595, 
  "▁Heather": 1596, 
  "ネックカーディガン": 1597, 
  "room": 1598, 
  "VPO": 1599, 
  "▁カジュアル": 1600, 
  "▁Don": 1601, 
  "一色": 1602, 
  "デニムジャケット": 1603, 
  "▁Cap": 1604, 
  "襟": 1605, 
  "チュニックワンピース": 1606, 
  "ゆる": 1607, 
  "▁6": 1608, 
  "▁Face": 1609, 
  "▁コットンリネン": 1610, 
  "▁シャンブレー": 1611, 
  "▁切り替え": 1612, 
  "tice": 1613, 
  "ボタンダウンシャツ": 1614, 
  "Gebl": 1615, 
  "▁bead": 1616, 
  "▁Swimsuit": 1617, 
  "▁Layer": 1618, 
  "▁Ralph": 1619, 
  "▁Champion": 1620, 
  "▁Bardo": 1621, 
  "▁Streifen": 1622, 
  "▁レーヨン": 1623, 
  "異素材": 1624, 
  "▁feel": 1625, 
  "▁Powder": 1626, 
  "▁Pockets": 1627, 
  "INED": 1628, 
  "▁エンブロイダリー": 1629, 
  "▁ミディアム": 1630, 
  "▁MI": 1631, 
  "▁tryck": 1632, 
  "▁mini": 1633, 
  "新品換季": 1634, 
  "▁ノースリ": 1635, 
  "ハイネックニット": 1636, 
  "▁Pin": 1637, 
  "Hose": 1638, 
  "▁to": 1639, 
  "ギンガム": 1640, 
  "分丈": 1641, 
  "100%": 1642, 
  "▁ボリュームスリーブ": 1643, 
  "変形": 1644, 
  "▁Premium": 1645, 
  "▁Line": 1646, 
  "▁シアー": 1647, 
  "▁Store": 1648, 
  "ar": 1649, 
  "フードコート": 1650, 
  "スキッパーブラウス": 1651, 
  "トッパーカーディガン": 1652, 
  "ラ": 1653, 
  "▁Mink": 1654, 
  "▁Collection": 1655, 
  "▁フロントタック": 1656, 
  "il": 1657, 
  "MAN": 1658, 
  "▁ホールガーメント": 1659, 
  "▁trA": 1660, 
  "▁テーパード": 1661, 
  "シフォンブラウス": 1662, 
  "strick": 1663, 
  "▁Rise": 1664, 
  "ピーチ": 1665, 
  "▁Burnout": 1666, 
  "潮流短": 1667, 
  "▁BL": 1668, 
  "アンサンブル": 1669, 
  "▁CHECK": 1670, 
  "ガラ": 1671, 
  "▁フェイクスエード": 1672, 
  "▁ライト": 1673, 
  "au": 1674, 
  "オフショルダー": 1675, 
  "▁袖フリル": 1676, 
  "ワイドリブ": 1677, 
  "▁Lounge": 1678, 
  "スカラップ": 1679, 
  "▁ルーズ": 1680, 
  "▁異素材": 1681, 
  "▁Raglan": 1682, 
  "▁フラワー刺繍": 1683, 
  "ニットチュニック": 1684, 
  "SC": 1685, 
  "▁フェザー": 1686, 
  "suit": 1687, 
  "ロング丈": 1688, 
  "▁Worn": 1689, 
  "ウォッシャブル": 1690, 
  "インナー": 1691, 
  "Linien": 1692, 
  "原價": 1693, 
  "フ": 1694, 
  "▁Pleat": 1695, 
  "トップ": 1696, 
  "▁Out": 1697, 
  "▁UV": 1698, 
  "スムース": 1699, 
  "ジャンスカ": 1700, 
  "▁RE": 1701, 
  "▁Blumen": 1702, 
  "▁logo": 1703, 
  "カルゼ": 1704, 
  "棉": 1705, 
  "ッ": 1706, 
  "グログラン": 1707, 
  "▁Oversize": 1708, 
  "▁Peplum": 1709, 
  "▁spets": 1710, 
  "▁Kapuze": 1711, 
  "スタジャン": 1712, 
  "re": 1713, 
  "hemd": 1714, 
  "▁Christopher": 1715, 
  "ムジ": 1716, 
  "▁マルチストライプ": 1717, 
  "stein": 1718, 
  "▁SKINNY": 1719, 
  "pink": 1720, 
  "▁9": 1721, 
  "▁ロングスリーブ": 1722, 
  "▁Belt": 1723, 
  "▁Big": 1724, 
  "ロングガウン": 1725, 
  "▁Natural": 1726, 
  "Line": 1727, 
  "▁Lori": 1728, 
  "現貨": 1729, 
  "ドルマンニット": 1730, 
  "▁アンゴラ混": 1731, 
  "單": 1732, 
  "タックフレアスカート": 1733, 
  "nt": 1734, 
  "▁ダブルフェイス": 1735, 
  "▁Robe": 1736, 
  "▁sweat": 1737, 
  "▁バックレース": 1738, 
  "▁ライン": 1739, 
  "▁Two": 1740, 
  "ライダース": 1741, 
  "▁Split": 1742, 
  "▁ONE": 1743, 
  "▁SLIM": 1744, 
  "Way": 1745, 
  "am": 1746, 
  "▁LS": 1747, 
  "▁膝丈": 1748, 
  "16": 1749, 
  "▁Roll": 1750, 
  "▁the": 1751, 
  "ステンカラーコート": 1752, 
  "▁レイヤード風": 1753, 
  "▁Nautica": 1754, 
  "▁ポロシャツ": 1755, 
  "▁v": 1756, 
  "カノコ": 1757, 
  "キ": 1758, 
  "▁Knot": 1759, 
  "インチ": 1760, 
  "シャンブレー": 1761, 
  "▁Bar": 1762, 
  "▁Yu": 1763, 
  "▁コビニャー": 1764, 
  "テーラード": 1765, 
  "st": 1766, 
  "POLO": 1767, 
  "f": 1768, 
  "ミラノリブ": 1769, 
  "▁Gingham": 1770, 
  "Vit": 1771, 
  "別注": 1772, 
  "▁Cord": 1773, 
  "▁フェイクレザー": 1774, 
  "▁pants": 1775, 
  "ベア": 1776, 
  "ワッペン": 1777, 
  "▁rA": 1778, 
  "▁スエード": 1779, 
  "▁Dickies": 1780, 
  "▁With": 1781, 
  "▁Hemd": 1782, 
  "ous": 1783, 
  "klanning": 1784, 
  "アシメ": 1785, 
  "▁オフタートル": 1786, 
  "▁ゆったり": 1787, 
  "ウエストリボン": 1788, 
  "ミモレ丈スカート": 1789, 
  "▁Bootcut": 1790, 
  "g": 1791, 
  "▁Cruz": 1792, 
  "▁Ljusbeige": 1793, 
  "+8173>": 1794, 
  "▁ビッグシルエット": 1795, 
  "▁Grace": 1796, 
  "JKT": 1797, 
  "▁Nike": 1798, 
  "フェザー": 1799, 
  "演奏": 1800, 
  "▁フード": 1801, 
  "NE": 1802, 
  "▁CR": 1803, 
  "▁袖レース": 1804, 
  "オフショルトップス": 1805, 
  "月号掲載": 1806, 
  "連身裙": 1807, 
  "▁Glitter": 1808, 
  "ア": 1809, 
  "クルーネックプルオーバー": 1810, 
  "ポロ": 1811, 
  "▁To": 1812, 
  "ショートコート": 1813, 
  "▁Johnbul": 1814, 
  "▁Elasticat": 1815, 
  "オックス": 1816, 
  "▁TA": 1817, 
  "▁Kurzarm": 1818, 
  "NY": 1819, 
  "▁Du": 1820, 
  "ペプラム": 1821, 
  "▁シャイニー": 1822, 
  "iana": 1823, 
  "?": 1824, 
  "▁short": 1825, 
  "▁for": 1826, 
  "▁切替": 1827, 
  "ブロード": 1828, 
  "▁リブニット": 1829, 
  "フラワープリント": 1830, 
  "も": 1831, 
  "ジーンズ": 1832, 
  "EC": 1833, 
  "チノ": 1834, 
  "ess": 1835, 
  "ga": 1836, 
  "▁30/-": 1837, 
  "ガウンコート": 1838, 
  "▁RAY": 1839, 
  "▁Chinos": 1840, 
  "ベルト付き": 1841, 
  "▁Denier": 1842, 
  "▁Boucle": 1843, 
  "コンパクト": 1844, 
  "▁n": 1845, 
  "▁Tropical": 1846, 
  "單件": 1847, 
  "▁Duster": 1848, 
  "ネックワンピース": 1849, 
  "▁テンセル": 1850, 
  "フィット": 1851, 
  "▁Bell": 1852, 
  "▁North": 1853, 
  "ドビー": 1854, 
  "▁Border": 1855, 
  "釦": 1856, 
  "ジョーゼットブラウス": 1857, 
  "15)": 1858, 
  "▁Poplin": 1859, 
  "▁ウォッシャブル": 1860, 
  "bluse": 1861, 
  "▁ラップ": 1862, 
  "ハイネックプルオーバー": 1863, 
  "メルトン": 1864, 
  "▁Taupe": 1865, 
  "スタンド": 1866, 
  "scape": 1867, 
  "▁cropped": 1868, 
  "タイプライター": 1869, 
  "land": 1870, 
  "フラワーワンピース": 1871, 
  "▁Amanda": 1872, 
  "▁Ask": 1873, 
  "white": 1874, 
  "チェックスカート": 1875, 
  "ジョガーパンツ": 1876, 
  "▁Boardshort": 1877, 
  "▁ストライプ柄": 1878, 
  "▁Coral": 1879, 
  "恤男": 1880, 
  "トレンチ": 1881, 
  "Black": 1882, 
  "▁クロップド": 1883, 
  "▁麻混": 1884, 
  "Saint": 1885, 
  "▁Chelsea": 1886, 
  "▁ボトムス": 1887, 
  "▁BORDER": 1888, 
  "▁Patchwork": 1889, 
  "刺繍ブラウス": 1890, 
  "ライダースジャケット": 1891, 
  "パール": 1892, 
  "▁ull": 1893, 
  "▁Finsticka": 1894, 
  "フレンチ": 1895, 
  "30": 1896, 
  "▁Mara": 1897, 
  "▁City": 1898, 
  "▁アシンメトリー": 1899, 
  "▁ボリューム": 1900, 
  "▁SET": 1901, 
  "▁Rugger": 1902, 
  "新品": 1903, 
  "ポンチョ": 1904, 
  "▁Loose": 1905, 
  "▁Ex": 1906, 
  "▁Wollmix": 1907, 
  "▁Night": 1908, 
  "▁おしゃれ": 1909, 
  "▁Brief": 1910, 
  "+5361>": 1911, 
  "▁ホワイト": 1912, 
  "▁Pyjamas": 1913, 
  "ance": 1914, 
  "▁Bike": 1915, 
  "▁blus": 1916, 
  "▁WORK": 1917, 
  "JQD": 1918, 
  "▁ドビー": 1919, 
  "▁CEPO": 1920, 
  "情侶款": 1921, 
  "▁Mint": 1922, 
  "pattern": 1923, 
  "愛": 1924, 
  "▁Baumwollbluse": 1925, 
  "1280": 1926, 
  "フロント": 1927, 
  "▁Daisy": 1928, 
  "▁ドレス": 1929, 
  "▁ハーフパンツ": 1930, 
  "半袖ニット": 1931, 
  "スエード": 1932, 
  "▁セーター": 1933, 
  "▁Shaping": 1934, 
  "ラッフル": 1935, 
  "最": 1936, 
  "ノースリーブニット": 1937, 
  "寬鬆": 1938, 
  "▁Burgundy": 1939, 
  "ne": 1940, 
  "▁Swim": 1941, 
  "▁Chambray": 1942, 
  "ニットカーデ": 1943, 
  "▁ショーツ": 1944, 
  "out": 1945, 
  "▁Leaf": 1946, 
  "▁Joe": 1947, 
  "▁Padded": 1948, 
  "畦": 1949, 
  "四色": 1950, 
  "一件": 1951, 
  "ギャザーブラウス": 1952, 
  "▁Bead": 1953, 
  "▁cardigan": 1954, 
  "look": 1955, 
  "▁POLO": 1956, 
  "ティアード": 1957, 
  "▁Fringe": 1958, 
  "Geblumt": 1959, 
  "チュールスカート": 1960, 
  "▁Brush": 1961, 
  "▁パール": 1962, 
  "Low": 1963, 
  "▁SIDE": 1964, 
  "サイドスリット": 1965, 
  "タックブラウス": 1966, 
  "▁Diamond": 1967, 
  "フライス": 1968, 
  "ダブルクロス": 1969, 
  "プリントワンピース": 1970, 
  "body": 1971, 
  "▁Baumwolle": 1972, 
  "迷彩": 1973, 
  "ツィード": 1974, 
  "ia": 1975, 
  "▁コート": 1976, 
  "ギンガムチェック": 1977, 
  "▁Softshell": 1978, 
  "を": 1979, 
  "裏毛プルオーバー": 1980, 
  "スター": 1981, 
  "リー": 1982, 
  "パネル": 1983, 
  "タックワンピース": 1984, 
  "▁サーフ系": 1985, 
  "▁oversize": 1986, 
  "alvin": 1987, 
  "ミックス": 1988, 
  "day": 1989, 
  "▁ビジュー付き": 1990, 
  "▁Bianc": 1991, 
  "▁ケーブルニット": 1992, 
  "▁ロングカーディガン": 1993, 
  "專": 1994, 
  "▁And": 1995, 
  "▁RETRO": 1996, 
  "▁kjol": 1997, 
  "▁Blouson": 1998, 
  "。490": 1999, 
  "區": 2000, 
  "▁Muse": 2001, 
  "▁Original": 2002, 
  "▁Ponte": 2003, 
  "fit": 2004, 
  "シャギーニット": 2005, 
  "▁LINE": 2006, 
  "▁HIGH": 2007, 
  "▁畦編み": 2008, 
  "▁York": 2009, 
  "インディゴ": 2010, 
  "ポイント": 2011, 
  "チェスター": 2012, 
  "▁ガウチョパンツ": 2013, 
  "タートルネック": 2014, 
  "▁TS": 2015, 
  "▁Mix": 2016, 
  "ボックス": 2017, 
  "▁トランクス": 2018, 
  "▁Gestreiftes": 2019, 
  "enjacke": 2020, 
  "▁Bodycon": 2021, 
  "マウンテンパーカー": 2022, 
  "▁EMBROIDERE": 2023, 
  "▁lyocell": 2024, 
  "ラメニット": 2025, 
  "▁SWEATSHIRT": 2026, 
  "ity": 2027, 
  "▁Shell": 2028, 
  "ダメージ": 2029, 
  "▁タイトスカート": 2030, 
  "▁ラッフル": 2031, 
  "▁Wine": 2032, 
  "▁スタンドカラー": 2033, 
  "▁Necklace": 2034, 
  "▁Qua": 2035, 
  "▁ポケット付き": 2036, 
  "▁Topp": 2037, 
  ".8": 2038, 
  "▁Puder": 2039, 
  "▁Love": 2040, 
  "スウェットパンツ": 2041, 
  "ブラック": 2042, 
  "タフタ": 2043, 
  "13": 2044, 
  "▁Chiffonkleid": 2045, 
  "▁COLLAR": 2046, 
  "ng": 2047, 
  "OPS": 2048, 
  "▁テーパードパンツ": 2049, 
  "▁TrikA": 2050, 
  "▁メルトン": 2051, 
  "▁Bodysuit": 2052, 
  "▁Brazilian": 2053, 
  "▁Stickad": 2054, 
  "▁Gil": 2055, 
  "中綿": 2056, 
  "ヘリンボン": 2057, 
  "▁パイル": 2058, 
  "Optik": 2059, 
  "06": 2060, 
  "五折": 2061, 
  "▁Camo": 2062, 
  "▁Arm": 2063, 
  "▁Gramelerad": 2064, 
  "▁Stitch": 2065, 
  "ジップパーカー": 2066, 
  "▁out": 2067, 
  "チェックワンピース": 2068, 
  "▁ハーレ": 2069, 
  "Mix": 2070, 
  "▁HG": 2071, 
  "空": 2072, 
  "▁Neckline": 2073, 
  "▁Fink": 2074, 
  "▁Henley": 2075, 
  "▁Graphite": 2076, 
  "タックワイドパンツ": 2077, 
  "▁Small": 2078, 
  "立領": 2079, 
  "▁high": 2080, 
  "BODY": 2081, 
  "▁TUNIC": 2082, 
  "00": 2083, 
  "▁ダメージ": 2084, 
  "コ": 2085, 
  "▁タンクトップ": 2086, 
  "スウェットプルオーバー": 2087, 
  "sy": 2088, 
  "し": 2089, 
  "▁Denimbla": 2090, 
  "▁gestreift": 2091, 
  "調": 2092, 
  "クルーネックカーディガン": 2093, 
  "▁Marynarka": 2094, 
  "+6236>": 2095, 
  "▁Maxikleid": 2096, 
  "▁Ski": 2097, 
  "▁BG": 2098, 
  "▁kapturem": 2099, 
  "▁Shadow": 2100, 
  "▁maxi": 2101, 
  "▁袖リボン": 2102, 
  "▁POCKET": 2103, 
  "江": 2104, 
  "▁slim": 2105, 
  "▁Sweter": 2106, 
  "▁〔": 2107, 
  "▁Marina": 2108, 
  "07": 2109, 
  "ブークレ": 2110, 
  "▁刺繍入り": 2111, 
  "-1-": 2112, 
  "Pack": 2113, 
  "NAVAL": 2114, 
  "▁ピーチ": 2115, 
  "▁Volants": 2116, 
  "▁SP": 2117, 
  "ジレ": 2118, 
  "▁beige": 2119, 
  "ノースリワンピース": 2120, 
  "▁Ribba": 2121, 
  "\\\"": 2122, 
  "▁szara": 2123, 
  "片畦": 2124, 
  "enu": 2125, 
  "tte": 2126, 
  "クルーニット": 2127, 
  "▁Knee": 2128, 
  "▁Vid": 2129, 
  "Monstrad": 2130, 
  "▁Hoody": 2131, 
  "▁大きいサイズ有": 2132, 
  "グ": 2133, 
  "CA": 2134, 
  "ゲージ": 2135, 
  "▁ヴィンテージ": 2136, 
  "白色": 2137, 
  "▁Tab": 2138, 
  "▁ショートパンツ": 2139, 
  "▁Skater": 2140, 
  "ロングスリーブ": 2141, 
  "+5167>": 2142, 
  "▁Ausgestellte": 2143, 
  "▁Work": 2144, 
  "牛仔短": 2145, 
  "シアー": 2146, 
  "ztec": 2147, 
  "パターン": 2148, 
  "SD": 2149, 
  "▁Miracle": 2150, 
  "▁ピンストライプ": 2151, 
  "▁So": 2152, 
  "ボンディング": 2153, 
  "▁JK": 2154, 
  "▁イレギュラーヘム": 2155, 
  "ペイズリー": 2156, 
  "▁Large": 2157, 
  "▁白色": 2158, 
  "クルーカーディガン": 2159, 
  "▁CAMI": 2160, 
  "▁Casual": 2161, 
  "圓領短袖": 2162, 
  "▁JUMPSUIT": 2163, 
  "▁Langarmshirt": 2164, 
  "heath": 2165, 
  "14": 2166, 
  "▁異素材切替": 2167, 
  "▁Kombinezon": 2168, 
  "▁Waistband": 2169, 
  "▁Linne": 2170, 
  "ム": 2171, 
  "BIGT": 2172, 
  "サイド": 2173, 
  "VN": 2174, 
  "ipped": 2175, 
  "カットワンピース": 2176, 
  "▁Of": 2177, 
  "▁Onj": 2178, 
  "ate": 2179, 
  "イレヘム": 2180, 
  "▁Andrew": 2181, 
  "▁Rollkragen": 2182, 
  "Star": 2183, 
  "▁ジャージ": 2184, 
  "▁ブルー": 2185, 
  "la": 2186, 
  "▁丈青": 2187, 
  "ニ": 2188, 
  "stoff": 2189, 
  "los": 2190, 
  "▁Cast": 2191, 
  "パフ": 2192, 
  "▁黒": 2193, 
  "▁Motif": 2194, 
  "ion": 2195, 
  "erry": 2196, 
  "レースワンピース": 2197, 
  "▁waist": 2198, 
  "▁Winter": 2199, 
  "j": 2200, 
  "elli": 2201, 
  "+9": 2202, 
  "JP": 2203, 
  "▁パッチワーク": 2204, 
  "red": 2205, 
  "▁NEW": 2206, 
  "▁SHIRTS": 2207, 
  "▁Society": 2208, 
  "▁メランジ": 2209, 
  "ストライプブラウス": 2210, 
  "ry": 2211, 
  "▁アンゴラ": 2212, 
  "折於訂單成立後調整折扣": 2213, 
  "▁STRETCH": 2214, 
  "▁Plissierte": 2215, 
  "▁Square": 2216, 
  "▁Stud": 2217, 
  "▁Sweet": 2218, 
  "ダウンベスト": 2219, 
  "▁Tight": 2220, 
  "▁Insert": 2221, 
  "▁タートル": 2222, 
  "アゼ": 2223, 
  "▁スター": 2224, 
  "▁o": 2225, 
  "▁parka": 2226, 
  "▁wash": 2227, 
  "ミニ裏毛": 2228, 
  "▁Ruffled": 2229, 
  "aldi": 2230, 
  "▁Drawstring": 2231, 
  "』": 2232, 
  "▁Marle": 2233, 
  "プルオーバーニット": 2234, 
  "▁謝恩会": 2235, 
  "19": 2236, 
  "▁Graham": 2237, 
  "▁PARKA": 2238, 
  "▁Slogan": 2239, 
  "AL": 2240, 
  "中長款": 2241, 
  "圓領": 2242, 
  "▁同窓会": 2243, 
  "(3": 2244, 
  "共": 2245, 
  "ネック長袖": 2246, 
  "akiet": 2247, 
  "ley": 2248, 
  "▁Veste": 2249, 
  "▁Kapuzen": 2250, 
  "ta": 2251, 
  "xa": 2252, 
  "▁dekoltem": 2253, 
  "▁Dr": 2254, 
  "パフスリーブ": 2255, 
  "▁Spitzen": 2256, 
  "▁zip": 2257, 
  "スタンドカラー": 2258, 
  "ステッチ": 2259, 
  "09": 2260, 
  "キュロット": 2261, 
  "ウール混": 2262, 
  "▁sleeveless": 2263, 
  "▁Basics": 2264, 
  "▁US": 2265, 
  "▁18": 2266, 
  "襯衫": 2267, 
  "次会": 2268, 
  "culpt": 2269, 
  "▁Reversible": 2270, 
  "RACLE": 2271, 
  "オーバー": 2272, 
  "カモフラ": 2273, 
  "▁チェックシャツ": 2274, 
  "▁one": 2275, 
  "andig": 2276, 
  "LOGNE": 2277, 
  "タ": 2278, 
  "▁カシミヤ": 2279, 
  "▁Wind": 2280, 
  "▁Monstrad": 2281, 
  "▁パネルボーダー": 2282, 
  "ストレート": 2283, 
  "▁海": 2284, 
  "ボートネックニット": 2285, 
  "オーガンジー": 2286, 
  "▁シースルー": 2287, 
  "leg": 2288, 
  "▁Works": 2289, 
  "herokee": 2290, 
  "5°": 2291, 
  "▁タックデザイン": 2292, 
  "▁RA": 2293, 
  "▁Ve": 2294, 
  "フーディー": 2295, 
  "▁FLOWER": 2296, 
  "▁ボタニカル": 2297, 
  "▁WRAP": 2298, 
  "スラックス": 2299, 
  "▁バックレースアップ": 2300, 
  "連帽": 2301, 
  "▁Jack": 2302, 
  "▁Skate": 2303, 
  "チ": 2304, 
  "カーゴパンツ": 2305, 
  "▁bluzka": 2306, 
  "▁フレアスカート": 2307, 
  "▁ペプラム": 2308, 
  "▁フェイクファー": 2309, 
  "▁Madras": 2310, 
  "▁MART": 2311, 
  "rkgrA": 2312, 
  "ウエスト": 2313, 
  "▁denimbla": 2314, 
  "▁AC": 2315, 
  "▁フロントレース": 2316, 
  "シースルー": 2317, 
  "AB": 2318, 
  "オフタートル": 2319, 
  "no": 2320, 
  "▁Boxer": 2321, 
  "▁Rayures": 2322, 
  "▁ストレッチデニム": 2323, 
  "マルチボーダー": 2324, 
  "▁ミニ裏毛": 2325, 
  "▁Slub": 2326, 
  "▁Sea": 2327, 
  "and": 2328, 
  "∴": 2329, 
  "▁フレンチリネン": 2330, 
  "▁Diane": 2331, 
  "▁Tailored": 2332, 
  "▁ro": 2333, 
  "ミディ丈スカート": 2334, 
  "▁チェスターコート": 2335, 
  "▁スリム": 2336, 
  "▁bomulls": 2337, 
  "▁sequin": 2338, 
  "▁jumpsuit": 2339, 
  "エンブロイダリー": 2340, 
  "フォト": 2341, 
  "▁Poncho": 2342, 
  "▁Ivory": 2343, 
  "▁Wmn": 2344, 
  "▁Gestreifte": 2345, 
  "▁Geometric": 2346, 
  "ユル": 2347, 
  "REGULAR": 2348, 
  "ife": 2349, 
  "レ": 2350, 
  "▁不會立即變更": 2351, 
  "linne": 2352, 
  "▁ベルテッド": 2353, 
  "Out": 2354, 
  "▁ラップ風": 2355, 
  "▁Tile": 2356, 
  "蕾絲": 2357, 
  "▁Air": 2358, 
  "▁wi": 2359, 
  "スクエア": 2360, 
  "▁Denimbl": 2361, 
  ")12": 2362, 
  "▁任選": 2363, 
  "ies": 2364, 
  "▁Run": 2365, 
  "aya": 2366, 
  "▁中綿": 2367, 
  "▁Be": 2368, 
  "▁Me": 2369, 
  "▁PANT": 2370, 
  "▁Ribbsticka": 2371, 
  "▁Pale": 2372, 
  "▁Layered": 2373, 
  "▁Select": 2374, 
  "▁(3": 2375, 
  "▁Style": 2376, 
  "▁Ocean": 2377, 
  "COLORS": 2378, 
  "ショルダー": 2379, 
  "▁sleeves": 2380, 
  "▁MT": 2381, 
  "トラウザー": 2382, 
  "▁40": 2383, 
  "▁IRON": 2384, 
  "▁Twi": 2385, 
  "設計": 2386, 
  "▁薄手": 2387, 
  "▁フレンチスリーブ": 2388, 
  "▁Lauf": 2389, 
  "▁ペイズリー": 2390, 
  "▁Base": 2391, 
  "ノースリーブプルオーバー": 2392, 
  "▁Lovin": 2393, 
  "▁ボーダー柄": 2394, 
  "▁Bird": 2395, 
  "▁|": 2396, 
  "▁60": 2397, 
  "Pullover": 2398, 
  "▁フリルスリーブ": 2399, 
  "スリム": 2400, 
  "パッチワーク": 2401, 
  "▁Patch": 2402, 
  "POLS": 2403, 
  "▁小花柄": 2404, 
  "▁迷彩": 2405, 
  "サーキュラースカート": 2406, 
  "▁Rugby": 2407, 
  "kko": 2408, 
  "▁Active": 2409, 
  "▁Core": 2410, 
  "ll": 2411, 
  "ダウンジャケット": 2412, 
  "▁Merino": 2413, 
  "▁denimbl": 2414, 
  "▁Doll": 2415, 
  "▁Twist": 2416, 
  "▁Through": 2417, 
  "▁Milan": 2418, 
  "▁KBF": 2419, 
  "oja": 2420, 
  "▁Utility": 2421, 
  "▁Every": 2422, 
  "ショート丈": 2423, 
  "▁Race": 2424, 
  "▁Free": 2425, 
  "▁RELAX": 2426, 
  "▁シャギーチェック": 2427, 
  "mi": 2428, 
  "▁Lo": 2429, 
  "▁ruffle": 2430, 
  "▁Factor": 2431, 
  "rmad": 2432, 
  "▁Some": 2433, 
  "▁Shawl": 2434, 
  "HANTO": 2435, 
  "DENIM": 2436, 
  "La": 2437, 
  "ハート": 2438, 
  "リップル": 2439, 
  "造型": 2440, 
  "九分": 2441, 
  "ストレッチデニム": 2442, 
  "IN": 2443, 
  "▁My": 2444, 
  "▁tunic": 2445, 
  "ノースリーブカットソー": 2446, 
  "▁ミニドレス": 2447, 
  "▁Element": 2448, 
  "▁ボンディング": 2449, 
  "▁オーガンジー": 2450, 
  "▁Track": 2451, 
  "レーヨン": 2452, 
  "▁エレガント": 2453, 
  "Sleeved": 2454, 
  "▁Barbara": 2455, 
  "▁トレンチコート": 2456, 
  "fta": 2457, 
  "ミモレスカート": 2458, 
  "rmellose": 2459, 
  "格": 2460, 
  "the": 2461, 
  "▁ギフト": 2462, 
  "パ": 2463, 
  "コットンシャツ": 2464, 
  "▁Skjort": 2465, 
  "▁セットアップ": 2466, 
  "star": 2467, 
  "圖片色": 2468, 
  "ドルマンプルオーバー": 2469, 
  "▁Gant": 2470, 
  "days": 2471, 
  "▁Chic": 2472, 
  "▁volang": 2473, 
  "パーティドレス": 2474, 
  "▁Military": 2475, 
  "▁ドロスト": 2476, 
  "▁Rydia": 2477, 
  "ami": 2478, 
  "Pt": 2479, 
  "零碼": 2480, 
  "▁BOX": 2481, 
  "▁tee": 2482, 
  "▁troj": 2483, 
  "70": 2484, 
  "▁Bomulls": 2485, 
  "▁czarny": 2486, 
  "▁Resistan": 2487, 
  "▁タック入り": 2488, 
  "▁Palazzo": 2489, 
  "▁カノコ": 2490, 
  "▁MAXI": 2491, 
  "▁SURF": 2492, 
  "▁trikA": 2493, 
  "ネック長袖プルオーバー": 2494, 
  "ny": 2495, 
  "▁Culottes": 2496, 
  "カットトップス": 2497, 
  "▁ブルゾン": 2498, 
  "▁コンパクト": 2499, 
  "▁片畦": 2500, 
  "▁Shrug": 2501, 
  "バルーン": 2502, 
  "チノパンツ": 2503, 
  "リボンブラウス": 2504, 
  "▁ビジュー付": 2505, 
  "▁Silvia": 2506, 
  "▁Hot": 2507, 
  "INE": 2508, 
  "▁ecru": 2509, 
  "ka": 2510, 
  "FILA": 2511, 
  "▁ナイロン": 2512, 
  "▁Rust": 2513, 
  "き": 2514, 
  "▁par": 2515, 
  "▁ST": 2516, 
  "▁ファー": 2517, 
  "▁ウエスト": 2518, 
  "▁グログラン": 2519, 
  "圓領棉質短": 2520, 
  "▁bluza": 2521, 
  "▁Betty": 2522, 
  "ロ": 2523, 
  "▁Bolero": 2524, 
  "▁GG": 2525, 
  "▁ボタニカル柄": 2526, 
  "▁May": 2527, 
  "Wei": 2528, 
  "▁フロントリボン": 2529, 
  "デザインニット": 2530, 
  "パイピング": 2531, 
  "▁ゆる": 2532, 
  "▁Batwing": 2533, 
  "▁f": 2534, 
  "▁JERSEY": 2535, 
  "tee": 2536, 
  "25": 2537, 
  "ボーダーワンピース": 2538, 
  "▁College": 2539, 
  "▁柄": 2540, 
  "ライク": 2541, 
  "ジ": 2542, 
  "▁#": 2543, 
  "イ": 2544, 
  "OZ": 2545, 
  "RIB": 2546, 
  "▁Bodys": 2547, 
  "▁FLARE": 2548, 
  "▁ラグラン": 2549, 
  "ウ": 2550, 
  "▁MINI": 2551, 
  "GG": 2552, 
  "ニットスカート": 2553, 
  "76": 2554, 
  "▁フード付": 2555, 
  "型": 2556, 
  "ek": 2557, 
  "▁Raw": 2558, 
  "▁//": 2559, 
  "▁インナー": 2560, 
  "レーススカート": 2561, 
  "Jacke": 2562, 
  "▁HEM": 2563, 
  "▁INDIGO": 2564, 
  "▁Asymmetrische": 2565, 
  "▁Broad": 2566, 
  "▁Weinrot": 2567, 
  "-501": 2568, 
  "▁Velour": 2569, 
  "▁Sun": 2570, 
  "キモウ": 2571, 
  "▁Scuba": 2572, 
  "オフショルニット": 2573, 
  "ガーゼ": 2574, 
  "▁パフスリーブ": 2575, 
  "20": 2576, 
  "▁Taif": 2577, 
  "zootie": 2578, 
  "rade": 2579, 
  "▁flower": 2580, 
  "▁グラデーション": 2581, 
  "▁Zoot": 2582, 
  "▁PULLOVER": 2583, 
  "▁BxH": 2584, 
  "▁asymmetric": 2585, 
  "ショール": 2586, 
  "ソフト": 2587, 
  "▁TANK": 2588, 
  "ヤーン": 2589, 
  "▁ランダム": 2590, 
  "▁サーマル": 2591, 
  "▁チノ": 2592, 
  "mann": 2593, 
  "▁Stickerei": 2594, 
  "▁クラッシュ": 2595, 
  "オーバーサイズ": 2596, 
  "ila": 2597, 
  "レギンス": 2598, 
  "299》": 2599, 
  "ツキ": 2600, 
  "カットオフ": 2601, 
  "▁白": 2602, 
  "▁Valentin": 2603, 
  "▁Masa": 2604, 
  "▁Playsuit": 2605, 
  "as": 2606, 
  "▁FRILL": 2607, 
  "く": 2608, 
  "▁Turn": 2609, 
  "ig": 2610, 
  "い": 2611, 
  "▁前後": 2612, 
  "▁タートルネック": 2613, 
  "▁ノーカラージャケット": 2614, 
  "▁アウター": 2615, 
  "ra": 2616, 
  "▁ネイビー": 2617, 
  "”": 2618, 
  "▁Land": 2619, 
  "▁Ne": 2620, 
  "se": 2621, 
  "ワイドスリーブ": 2622, 
  "▁off": 2623, 
  "hill": 2624, 
  "▁Clear": 2625, 
  "ell": 2626, 
  "▁Chloe": 2627, 
  "▁オックス": 2628, 
  "▁ストレッチツイル": 2629, 
  "hb": 2630, 
  "▁Pan": 2631, 
  "▁GP": 2632, 
  "▁Hals": 2633, 
  "▁スリーブ": 2634, 
  "▁コクーン": 2635, 
  "ur": 2636, 
  "デニムスキニーパンツ": 2637, 
  "▁RUFFLE": 2638, 
  "100": 2639, 
  "CN": 2640, 
  "▁NosiL": 2641, 
  "▁Khakigron": 2642, 
  "▁Tees": 2643, 
  "綿麻": 2644, 
  "オフタートルニット": 2645, 
  "▁Performance": 2646, 
  "▁ドッキング": 2647, 
  "マ": 2648, 
  "▁Ras": 2649, 
  "▁Cou": 2650, 
  "▁Kaftan": 2651, 
  "▁we": 2652, 
  "▁カットオフ": 2653, 
  "990": 2654, 
  "オパール": 2655, 
  "▁オーバーサイズ": 2656, 
  "▁イージー": 2657, 
  "▁Dolce": 2658, 
  "ボリュームスリーブ": 2659, 
  "▁Lisa": 2660, 
  "▁カモフラ": 2661, 
  "素色": 2662, 
  "~4": 2663, 
  "▁Gabba": 2664, 
  "▁カラフル": 2665, 
  "▁ツィード": 2666, 
  "▁Bitter": 2667, 
  "▁パーカ": 2668, 
  "ハンソデ": 2669, 
  "▁センタープレス": 2670, 
  "畦ニット": 2671, 
  "▁Fransen": 2672, 
  "cloth": 2673, 
  "▁Easy": 2674, 
  "七分": 2675, 
  "▁Pinstripe": 2676, 
  "地": 2677, 
  "フラワー刺繍": 2678, 
  "p": 2679, 
  "▁スムース": 2680, 
  "ズ": 2681, 
  "▁Rond": 2682, 
  "▁Rippen": 2683, 
  "ミ": 2684, 
  "▁be": 2685, 
  "オ": 2686, 
  "アシンメトリー": 2687, 
  "メ": 2688, 
  "▁Effect": 2689, 
  "▁CL": 2690, 
  "▁Hellgraumeliert": 2691, 
  "▁g": 2692, 
  "▁Disney": 2693, 
  "▁Geo": 2694, 
  "ビック": 2695, 
  "七分袖シャツ": 2696, 
  "ストライプスカート": 2697, 
  "ability": 2698, 
  "▁ジーンズ": 2699, 
  "der": 2700, 
  "▁【2017": 2701, 
  "▁袖フレア": 2702, 
  "590": 2703, 
  "▁袖ボリューム": 2704, 
  "▁gramelerad": 2705, 
  "▁Boot": 2706, 
  "綿": 2707, 
  "▁bia": 2708, 
  "背心": 2709, 
  "アソート": 2710, 
  "▁hoodie": 2711, 
  "▁フラワー刺しゅう": 2712, 
  "撞色": 2713, 
  "Big": 2714, 
  ".5": 2715, 
  "▁ROSE": 2716, 
  "▁肩リボン": 2717, 
  "ash": 2718, 
  "+2198>】【": 2719, 
  "▁Mixed": 2720, 
  "▁MEN": 2721, 
  "▁TrA": 2722, 
  "ro": 2723, 
  "dv": 2724, 
  "cut": 2725, 
  "▁Dye": 2726, 
  "Sunset": 2727, 
  "avaj": 2728, 
  "▁Regatta": 2729, 
  "▁sweater": 2730, 
  "▁Rhythm": 2731, 
  "que": 2732, 
  "ピンストライプ": 2733, 
  "中綿ベスト": 2734, 
  "バー": 2735, 
  "):": 2736, 
  "Linie": 2737, 
  "半袖ブラウス": 2738, 
  "▁Sparkle": 2739, 
  "▁OVER": 2740, 
  "ca": 2741, 
  "▁Jerseytop": 2742, 
  "ロングジャケット": 2743, 
  "▁Trench": 2744, 
  "ch": 2745, 
  "Q": 2746, 
  "▁WOMEN": 2747, 
  "服": 2748, 
  "▁Bottom": 2749, 
  "▁Summer": 2750, 
  "▁ジャカード": 2751, 
  "▁Cycl": 2752, 
  "両": 2753, 
  "▁Girl": 2754, 
  "▁ヘリンボーン": 2755, 
  "▁ショールカラー": 2756, 
  "▁MG": 2757, 
  "▁Lot": 2758, 
  "▁Abstract": 2759, 
  "▁2.0": 2760, 
  "▁Street": 2761, 
  "▁Ron": 2762, 
  "▁サカリバ": 2763, 
  "▁ネイティブ柄": 2764, 
  "ミドル": 2765, 
  "ロゴプルオーバー": 2766, 
  "ック": 2767, 
  "▁Dolman": 2768, 
  "78": 2769, 
  "93>": 2770, 
  "▁GA": 2771, 
  "▁Triangle": 2772, 
  "レース切替": 2773, 
  "▁Circle": 2774, 
  "テープ": 2775, 
  "▁Absolute": 2776, 
  "tro": 2777, 
  "▁15": 2778, 
  "フェイク": 2779, 
  "▁Taper": 2780, 
  "ge": 2781, 
  "ma": 2782, 
  "▁HOODED": 2783, 
  "ダブルフェイス": 2784, 
  "SPT": 2785, 
  "モール": 2786, 
  "▁CS": 2787, 
  "ika": 2788, 
  "レザー": 2789, 
  "▁Bass": 2790, 
  "▁Legging": 2791, 
  "▁BLUZ": 2792, 
  "▁Midnight": 2793, 
  "CR": 2794, 
  "ポケット付き": 2795, 
  "▁Leinenmix": 2796, 
  "▁Not": 2797, 
  "丈": 2798, 
  "シャツブラウス": 2799, 
  "▁Jeansjacke": 2800, 
  "Robe": 2801, 
  "▁Prima": 2802, 
  "パネルボーダー": 2803, 
  "ウエストゴム": 2804, 
  "▁Serie": 2805, 
  "▁Color": 2806, 
  "CE": 2807, 
  "ラウンドネック": 2808, 
  "▁Lilac": 2809, 
  "▁大人": 2810, 
  "▁SHORTS": 2811, 
  "▁Teal": 2812, 
  "フーディ": 2813, 
  "▁on": 2814, 
  "abella": 2815, 
  "light": 2816, 
  "enco": 2817, 
  "ロシェル": 2818, 
  "MIUSTAR": 2819, 
  "Plus": 2820, 
  "カジュアル": 2821, 
  "490": 2822, 
  "▁Beach": 2823, 
  "ana": 2824, 
  "▁Day": 2825, 
  "▁Fam": 2826, 
  "▁Essentials": 2827, 
  "alencia": 2828, 
  "アンクルパンツ": 2829, 
  "デザインブラウス": 2830, 
  "大": 2831, 
  "台形": 2832, 
  "length": 2833, 
  "▁Hellrosa": 2834, 
  "日": 2835, 
  "▁Barcelona": 2836, 
  "▁7/8-": 2837, 
  "▁Morkgra": 2838, 
  "▁衿": 2839, 
  "▁ブロード": 2840, 
  "▁エアリー": 2841, 
  "▁ダンガリー": 2842, 
  "lock": 2843, 
  "不": 2844, 
  "リング": 2845, 
  "▁シアーチェック": 2846, 
  "▁レイビームス": 2847, 
  "nest": 2848, 
  "▁チュニック": 2849, 
  "牛仔長": 2850, 
  "nch": 2851, 
  "保暖": 2852, 
  "ソデ": 2853, 
  "開き": 2854, 
  "oshell": 2855, 
  "▁ア": 2856, 
  "▁Viskose": 2857, 
  "シャーリングブラウス": 2858, 
  "▁Dusty": 2859, 
  "/7": 2860, 
  "▁3301": 2861, 
  "碼": 2862, 
  "サーマル": 2863, 
  "コクーンワンピース": 2864, 
  "▁x": 2865, 
  "11": 2866, 
  "WEGO": 2867, 
  "▁Bicolour": 2868, 
  "つき": 2869, 
  "ハーフ": 2870, 
  "▁フラワー柄": 2871, 
  "▁フェザーヤーン": 2872, 
  "ボイル": 2873, 
  "▁刺しゅう": 2874, 
  "stripe": 2875, 
  "▁Tan": 2876, 
  "ot": 2877, 
  "PE": 2878, 
  "▁LINEN": 2879, 
  "288": 2880, 
  "▁Gra": 2881, 
  "水洗": 2882, 
  "▁ミニ": 2883, 
  "▁Ash": 2884, 
  "NT": 2885, 
  "▁ボーダーニット": 2886, 
  "Weis": 2887, 
  "39": 2888, 
  "レギュラーシャツ": 2889, 
  "▁裾フリンジ": 2890, 
  "Zip": 2891, 
  "▁collar": 2892, 
  "無": 2893, 
  "▁リボン付き": 2894, 
  "ロングニット": 2895, 
  "▁JKT": 2896, 
  "▁OPEN": 2897, 
  "まで": 2898, 
  "▁麻": 2899, 
  "ラウンド": 2900, 
  "ine": 2901, 
  "▁Vita": 2902, 
  "▁デニムシャツ": 2903, 
  "▁父の日": 2904, 
  "588": 2905, 
  "▁オールインワン": 2906, 
  "▁PRINTED": 2907, 
  "690": 2908, 
  "▁Cuff": 2909, 
  "▁Cocktailkleid": 2910, 
  "▁Look": 2911, 
  "▁hooded": 2912, 
  "▁SILK": 2913, 
  "ボーダー柄": 2914, 
  "▁Genera": 2915, 
  "デニムワイドパンツ": 2916, 
  "▁レオパード": 2917, 
  "▁Micro": 2918, 
  "▁satin": 2919, 
  "麻": 2920, 
  "▁NO": 2921, 
  "▁Zipper": 2922, 
  "▁Webstoff": 2923, 
  "ショールカーディガン": 2924, 
  "▁Materialmix": 2925, 
  "▁Denni": 2926, 
  "▁Feather": 2927, 
  "ヘリンボーン": 2928, 
  "+6": 2929, 
  "▁cotton": 2930, 
  "▁kwiaty": 2931, 
  "▁Keyhole": 2932, 
  "▁Salom": 2933, 
  "テーラー": 2934, 
  "▁イージーパンツ": 2935, 
  "ストライプ柄": 2936, 
  "▁Khakigrun": 2937, 
  "▁Dreamy": 2938, 
  "セ": 2939, 
  "▁Tweed": 2940, 
  "hood": 2941, 
  "ポケット付": 2942, 
  "Longshirt": 2943, 
  "▁バックシャン": 2944, 
  "フリース": 2945, 
  "GIRL": 2946, 
  "▁PE": 2947, 
  "▁後ろ": 2948, 
  "▁LIGHT": 2949, 
  "▁スキニー": 2950, 
  "▁ラメ混": 2951, 
  "ier": 2952, 
  "DDF": 2953, 
  "▁Stella": 2954, 
  "ニー": 2955, 
  "▁Noa": 2956, 
  "▁Fl": 2957, 
  "ベルトツキ": 2958, 
  "長袖襯衫": 2959, 
  "ローズ": 2960, 
  "▁ジップ": 2961, 
  "▁Embroidery": 2962, 
  "▁ボリューム袖": 2963, 
  "▁JACQUARD": 2964, 
  "▁sw": 2965, 
  "▁テーラードジャケット": 2966, 
  "▁Yoga": 2967, 
  "▁THREE": 2968, 
  "ヴィンテージ": 2969, 
  "▁Machin": 2970, 
  "ミリタリージャケット": 2971, 
  "Saum": 2972, 
  "▁Var": 2973, 
  "ツイードスカート": 2974, 
  "60": 2975, 
  "ビームスボーイ": 2976, 
  "ジャンパースカート": 2977, 
  "▁Bella": 2978, 
  "▁Windblown": 2979, 
  "リバーシブルスカート": 2980, 
  "ジュアル": 2981, 
  "金": 2982, 
  "▁Scarf": 2983, 
  "armad": 2984, 
  "▁ケミカルレース": 2985, 
  "▁Rich": 2986, 
  "フロッキー": 2987, 
  "▁Dare": 2988, 
  "▁キルティング": 2989, 
  "▁グレー": 2990, 
  "SEARCH": 2991, 
  "tunika": 2992, 
  "デシン": 2993, 
  "ボトルネックニット": 2994, 
  "▁Lurex": 2995, 
  "ピグメント": 2996, 
  "スウェード": 2997, 
  "LE": 2998, 
  "▁リボン付": 2999, 
  "III": 3000, 
  "▁花": 3001, 
  "▁Ultra": 3002, 
  "▁Kostymbyx": 3003, 
  "▁Secret": 3004, 
  "▁Party": 3005, 
  "ロゴカットソー": 3006, 
  "▁プリーツスカート": 3007, 
  "49": 3008, 
  "▁Col": 3009, 
  "▁ドット柄": 3010, 
  "フーデッド": 3011, 
  "▁grA": 3012, 
  "▁リラックス": 3013, 
  "▁STR": 3014, 
  "Alexander": 3015, 
  "▁VINTAGE": 3016, 
  "」": 3017, 
  "▁SWEATER": 3018, 
  "(5": 3019, 
  "▁リ": 3020, 
  "スカル": 3021, 
  "▁Struktur": 3022, 
  "▁膝上": 3023, 
  "▁Pepper": 3024, 
  "ティ": 3025, 
  "vec": 3026, 
  "▁Eyelet": 3027, 
  "entig": 3028, 
  "▁Give": 3029, 
  "▁ティアード": 3030, 
  "▁wide": 3031, 
  "zz": 3032, 
  "▁Flannel": 3033, 
  "▁Studio": 3034, 
  "▁Drop": 3035, 
  "NECK": 3036, 
  "▁OFF": 3037, 
  "ement": 3038, 
  "▁ze": 3039, 
  "▁ベルト": 3040, 
  "ノースリブラウス": 3041, 
  "▁flare": 3042, 
  "デ": 3043, 
  "▁前結び": 3044, 
  "(7)": 3045, 
  "分袖ブラウス": 3046, 
  "▁タフタ": 3047, 
  "袖ボリューム": 3048, 
  "da": 3049, 
  "▁Trail": 3050, 
  "▁Wickel": 3051, 
  "um": 3052, 
  "▁スクエア": 3053, 
  "▁レース使い": 3054, 
  "STR": 3055, 
  "出清": 3056, 
  "ピンタック": 3057, 
  "▁FILA": 3058, 
  "キルト": 3059, 
  "▁com": 3060, 
  "Classic": 3061, 
  "分丈パンツ": 3062, 
  "▁ビジューボタン": 3063, 
  "▁Carreaux": 3064, 
  "alon": 3065, 
  "刺繍プルオーバー": 3066, 
  "復古": 3067, 
  "メンズ": 3068, 
  "▁Emboss": 3069, 
  "▁Bleistiftrock": 3070, 
  "▁Boat": 3071, 
  "▁袖刺繍": 3072, 
  "▁Treggings": 3073, 
  "EP": 3074, 
  "▁pleat": 3075, 
  "▁Strick": 3076, 
  "個性": 3077, 
  "floral": 3078, 
  "▁style": 3079, 
  "ミリタリーシャツ": 3080, 
  "▁Lion": 3081, 
  "フリルスリーブ": 3082, 
  "フラワーレース": 3083, 
  "▁Plisserad": 3084, 
  "ジップ": 3085, 
  "▁RED": 3086, 
  "Top": 3087, 
  "▁STAR": 3088, 
  "roja": 3089, 
  "編": 3090, 
  "●": 3091, 
  "▁Peach": 3092, 
  "▁スカラップレース": 3093, 
  "重ね": 3094, 
  "▁秋服": 3095, 
  "レイヤー": 3096, 
  "PIU": 3097, 
  "毛": 3098, 
  "▁オリジナル": 3099, 
  "▁アシメ": 3100, 
  "ドロスト": 3101, 
  "▁Oui": 3102, 
  "▁Bla": 3103, 
  "ファブリック": 3104, 
  "Cardigan": 3105, 
  "▁Trenchcoat": 3106, 
  "リラックス": 3107, 
  "kin": 3108, 
  "RY": 3109, 
  "▁Custo": 3110, 
  "▁WEB": 3111, 
  "▁SWEET": 3112, 
  "っと": 3113, 
  "テ": 3114, 
  "▁Joseph": 3115, 
  "Altura": 3116, 
  "ミディ丈": 3117, 
  "▁ミモレ丈": 3118, 
  "ホワイト": 3119, 
  "▁musee": 3120, 
  "CH": 3121, 
  "el": 3122, 
  "▁お": 3123, 
  "シャイニー": 3124, 
  "eff": 3125, 
  "布帛": 3126, 
  "ボウタイブラウス": 3127, 
  "袖レース": 3128, 
  "▁ALL": 3129, 
  "koff": 3130, 
  "▁Monochrom": 3131, 
  "USA": 3132, 
  "over": 3133, 
  "▁ミックス": 3134, 
  "▁Plum": 3135, 
  "タイトワンピース": 3136, 
  "假": 3137, 
  "▁Chiffonbluse": 3138, 
  "rrive": 3139, 
  "テンセル": 3140, 
  "▁アソート": 3141, 
  "コビニャー": 3142, 
  "▁レースコンビ": 3143, 
  "Fit": 3144, 
  "混": 3145, 
  "ット": 3146, 
  "TN": 3147, 
  "▁khaki": 3148, 
  "▁ニットカーディガン": 3149, 
  "▁Broderad": 3150, 
  "▁カルゼ": 3151, 
  "▁Royal": 3152, 
  "後": 3153, 
  "▁check": 3154, 
  "ボートネックプルオーバー": 3155, 
  "▁肩": 3156, 
  "▁MOE": 3157, 
  "ens": 3158, 
  "タートルネックニット": 3159, 
  "售": 3160, 
  "▁Modern": 3161, 
  "rml": 3162, 
  "▁Unisex": 3163, 
  "per": 3164, 
  "kragen": 3165, 
  "ハイゲージニット": 3166, 
  "▁ビジュー使い": 3167, 
  "Queen": 3168, 
  "WENT": 3169, 
  "字": 3170, 
  "美式風格": 3171, 
  "春夏": 3172, 
  "▁Angel": 3173, 
  "▁Offene": 3174, 
  "▁Island": 3175, 
  ")5": 3176, 
  "▁ペイズリー柄": 3177, 
  "▁up": 3178, 
  "袖フレア": 3179, 
  "ール": 3180, 
  "▁Nylon": 3181, 
  "切替プルオーバー": 3182, 
  "ling": 3183, 
  "系列": 3184, 
  "▁ラメツイード": 3185, 
  "▁ロン": 3186, 
  "co": 3187, 
  "orry": 3188, 
  "五分袖": 3189, 
  "▁Sh": 3190, 
  "キルティング": 3191, 
  "▁Gp": 3192, 
  "▁Bustier": 3193, 
  "▁Faded": 3194, 
  "前": 3195, 
  "フード付き": 3196, 
  "▁フロントボタン": 3197, 
  "▁透かし": 3198, 
  "オフショルダーブラウス": 3199, 
  "短袖襯衫": 3200, 
  "Kariert": 3201, 
  "SPO": 3202, 
  "ベルテッド": 3203, 
  "▁robe": 3204, 
  "▁SLIT": 3205, 
  "コン": 3206, 
  "DDW": 3207, 
  "moon": 3208, 
  "urk": 3209, 
  "AS": 3210, 
  "クラッシュ": 3211, 
  "▁透かし編み": 3212, 
  "▁サーフ": 3213, 
  "▁クロス": 3214, 
  "▁Puderbeige": 3215, 
  "▁スラブ天竺": 3216, 
  "46": 3217, 
  "▁Sunset": 3218, 
  "ci": 3219, 
  "連帽外套": 3220, 
  "▁Teddy": 3221, 
  "▁Non": 3222, 
  "▁五分袖": 3223, 
  "ズーティー": 3224, 
  "オンライン限定": 3225, 
  "▁bomull": 3226, 
  "プ": 3227, 
  "ダンガリー": 3228, 
  "▁クルー": 3229, 
  "▁クロップドパンツ": 3230, 
  "▁Longshirt": 3231, 
  "▁ストレート": 3232, 
  "▁Sommerkleid": 3233, 
  "▁Ripped": 3234, 
  "スエット": 3235, 
  "girl": 3236, 
  "▁Selvedge": 3237, 
  "フレンチスリーブ": 3238, 
  "▁Blush": 3239, 
  "モックネック": 3240, 
  "▁Warm": 3241, 
  "▁Strukturierte": 3242, 
  "tickad": 3243, 
  "Schwarz": 3244, 
  "ロングパンツ": 3245, 
  "RA": 3246, 
  "▁Stehkragen": 3247, 
  "▁Pe": 3248, 
  "▁Ale": 3249, 
  "▁ケーブル編み": 3250, 
  "ハイネックカットソー": 3251, 
  "▁パーティー": 3252, 
  "ブラウジング": 3253, 
  "チェックブラウス": 3254, 
  "▁Miss": 3255, 
  "▁21": 3256, 
  "▁Club": 3257, 
  "カーゴ": 3258, 
  "om": 3259, 
  "ボリューム袖": 3260, 
  "NF": 3261, 
  "▁Et": 3262, 
  "▁Script": 3263, 
  "▁Dusk": 3264, 
  "▁Saum": 3265, 
  "▁Blus": 3266, 
  "▁オーガニックコットン": 3267, 
  "KON": 3268, 
  "ボ": 3269, 
  "▁星柄": 3270, 
  "▁Ombre": 3271, 
  "ツ": 3272, 
  "▁フェイクレイヤード": 3273, 
  "▁GYM": 3274, 
  "長版": 3275, 
  "ich": 3276, 
  "▁Wollmischung": 3277, 
  "▁定番": 3278, 
  "リバー": 3279, 
  "デザインワンピース": 3280, 
  "▁Curve": 3281, 
  "▁キャミソール": 3282, 
  "女": 3283, 
  "▁畦": 3284, 
  "▁ボタンダウン": 3285, 
  "▁Flint": 3286, 
  "▁Superstretch": 3287, 
  "▁Moss": 3288, 
  "▁COLOR": 3289, 
  "▁Space": 3290, 
  "EN": 3291, 
  "ビッグシャツ": 3292, 
  "ded": 3293, 
  "▁damska": 3294, 
  "ギャバ": 3295, 
  "Gepunktet": 3296, 
  "▁Belle": 3297, 
  "Orange": 3298, 
  "kawami": 3299, 
  "▁Snake": 3300, 
  "▁Czarny": 3301, 
  "直筒": 3302, 
  "エ": 3303, 
  "価": 3304, 
  "刺繍入り": 3305, 
  "66": 3306, 
  "ブロードシャツ": 3307, 
  "▁サイドライン": 3308, 
  "分袖カットソー": 3309, 
  "kawem": 3310, 
  "niana": 3311, 
  "▁Good": 3312, 
  "ヘンリーネック": 3313, 
  "プリントプルオーバー": 3314, 
  "ボウタイ": 3315, 
  "▁Racer": 3316, 
  "コクーンスカート": 3317, 
  "et": 3318, 
  "IR": 3319, 
  "▁クルーネックニット": 3320, 
  "プリントブラウス": 3321, 
  "ラインニット": 3322, 
  "▁パイピング": 3323, 
  "▁Uni": 3324, 
  "▁“": 3325, 
  "▁Armellose": 3326, 
  "袖フリル": 3327, 
  "▁World": 3328, 
  "▁Car": 3329, 
  "マルチ": 3330, 
  "▁2017": 3331, 
  "iwi": 3332, 
  "ダ": 3333, 
  "期間限定": 3334, 
  "▁ネックレス付": 3335, 
  "HN": 3336, 
  "tch": 3337, 
  "▁UA": 3338, 
  "ボトルネックプルオーバー": 3339, 
  "74": 3340, 
  "$1000": 3341, 
  "li": 3342, 
  "限定サイズ": 3343, 
  "る": 3344, 
  "▁straight": 3345, 
  "皮": 3346, 
  "▁Anna": 3347, 
  "タッチ": 3348, 
  "▁滿": 3349, 
  "ワンピースドレス": 3350, 
  "▁back": 3351, 
  "活": 3352, 
  "店": 3353, 
  "ネックロン": 3354, 
  "▁ベア": 3355, 
  "tem": 3356, 
  "剪接": 3357, 
  "▁長袖プルオーバー": 3358, 
  "帶": 3359, 
  "imate": 3360, 
  "ボタニカル": 3361, 
  "ロングジレ": 3362, 
  "イン": 3363, 
  "ウールコート": 3364, 
  "$100": 3365, 
  "抽繩": 3366, 
  "ear": 3367, 
  "子": 3368, 
  "グラデーション": 3369, 
  "テンジク": 3370, 
  "son": 3371, 
  "▁Mustard": 3372, 
  "タック入り": 3373, 
  "wich": 3374, 
  "mantel": 3375, 
  "▁AND": 3376, 
  "コットンパンツ": 3377, 
  "▁サマー": 3378, 
  "▁NBA": 3379, 
  "SHARK": 3380, 
  "CS": 3381, 
  "▁raffine": 3382, 
  "▁CAM": 3383, 
  "Muster": 3384, 
  "ATSUR": 3385, 
  "圓領長袖": 3386, 
  "lite": 3387, 
  "▁blazer": 3388, 
  "レースタイトスカート": 3389, 
  "▁Gummibund": 3390, 
  "▁シルク混": 3391, 
  "▁Eyel": 3392, 
  "勝": 3393, 
  "YAMA": 3394, 
  "▁Corduroy": 3395, 
  "cher": 3396, 
  "AR": 3397, 
  "▁シルク": 3398, 
  "▁ショート丈": 3399, 
  "杢": 3400, 
  "▁Heavy": 3401, 
  "▁URBAN": 3402, 
  "格子": 3403, 
  "フレアブラウス": 3404, 
  "キュロットパンツ": 3405, 
  "kay": 3406, 
  "▁Elizabeth": 3407, 
  "▁膝下": 3408, 
  "タートルプルオーバー": 3409, 
  "ave": 3410, 
  "ミドル丈": 3411, 
  "半袖カットソー": 3412, 
  "Bikerjacke": 3413, 
  "フレアーワンピース": 3414, 
  "格紋": 3415, 
  "▁SUPER": 3416, 
  "ey": 3417, 
  "▁DE": 3418, 
  "切り替えプルオーバー": 3419, 
  "▁Deu": 3420, 
  "▁Shear": 3421, 
  "▁Vero": 3422, 
  "▁TROUSER": 3423, 
  "▁Thrash": 3424, 
  "▁Funnel": 3425, 
  "感": 3426, 
  "lusenkleid": 3427, 
  "sh": 3428, 
  "マリン": 3429, 
  "rcella": 3430, 
  "▁Texture": 3431, 
  "▁WOVEN": 3432, 
  "入り": 3433, 
  "▁Support": 3434, 
  "▁Asso": 3435, 
  "コーチジャケット": 3436, 
  "▁ショートスリーブ": 3437, 
  "經典": 3438, 
  "▁Cat": 3439, 
  "シャ": 3440, 
  "▁chocol": 3441, 
  "▁ロック": 3442, 
  "NTJ": 3443, 
  "▁マルチ": 3444, 
  "コットンニット": 3445, 
  "▁Schlaf": 3446, 
  "点": 3447, 
  "▁ML": 3448, 
  "▁Ljusrosa": 3449, 
  "▁granat": 3450, 
  "▁Sage": 3451, 
  "▁フェイクスウェード": 3452, 
  "ワーク": 3453, 
  "▁選べる": 3454, 
  "▁Thermo": 3455, 
  "▁Rod": 3456, 
  "純色": 3457, 
  "ティーシャツ": 3458, 
  "NA": 3459, 
  "ジャガードニット": 3460, 
  "▁マリン": 3461, 
  "エアリー": 3462, 
  "メランジ": 3463, 
  "モヘア": 3464, 
  "鹿の子": 3465, 
  "▁mesh": 3466, 
  "UGUALE": 3467, 
  "▁お呼ばれ": 3468, 
  "▁Dry": 3469, 
  "▁フェイクムートン": 3470, 
  "RE": 3471, 
  "▁Pique": 3472, 
  "ショールカーデ": 3473, 
  "▁フレア袖": 3474, 
  "▁Chest": 3475, 
  "▁ポケット付": 3476, 
  "▁Band": 3477, 
  "▁Di": 3478, 
  "▁ハート": 3479, 
  "▁フレアー": 3480, 
  "+2198>": 3481, 
  "▁Moth": 3482, 
  "潮流長": 3483, 
  "ハイゲージ": 3484, 
  "カン": 3485, 
  "▁Push": 3486, 
  "サイドライン": 3487, 
  "明": 3488, 
  "天竺カットソー": 3489, 
  "▁Georgette": 3490, 
  "▁pocket": 3491, 
  "▁Nick": 3492, 
  "▁BLOUSON": 3493, 
  "ze": 3494, 
  "▁Hemdbluse": 3495, 
  "uga": 3496, 
  "▁Mans": 3497, 
  "リボンワンピース": 3498, 
  "オックスシャツ": 3499, 
  "▁キャミ": 3500, 
  "ツイスト": 3501, 
  "▁Lin": 3502, 
  "▁モックネック": 3503, 
  "▁ラッフルスリーブ": 3504, 
  "▁TO": 3505, 
  "ストライプワンピース": 3506, 
  "純棉": 3507, 
  "black": 3508, 
  "フラワースカート": 3509, 
  "恤上衣": 3510, 
  "im": 3511, 
  "▁サイドリボン": 3512, 
  "nny": 3513, 
  "▁SC": 3514, 
  "▁Chevron": 3515, 
  "▁SATIN": 3516, 
  "▁PJ": 3517, 
  "▁フェイク": 3518, 
  "▁Multicolor": 3519, 
  "▁JP": 3520, 
  "ネ": 3521, 
  "anni": 3522, 
  "▁design": 3523, 
  "▁Al": 3524, 
  "バックシャン": 3525, 
  "▁Rebel": 3526, 
  "▁Seidenbluse": 3527, 
  "▁スキニーパンツ": 3528, 
  "▁レトロ": 3529, 
  "▁elastische": 3530, 
  "SHIRTS": 3531, 
  "40": 3532, 
  "▁Zebra": 3533, 
  "▁コットンレース": 3534, 
  "lide": 3535, 
  "▁ビ": 3536, 
  "▁兩色售": 3537, 
  "リボン付": 3538, 
  "袖リボン": 3539, 
  "マルチストライプ": 3540, 
  "楊柳": 3541, 
  "▁裏ボア": 3542, 
  "▁Ringer": 3543, 
  "▁spodnica": 3544, 
  "een": 3545, 
  "ケーブルニットプルオーバー": 3546, 
  "ad": 3547, 
  "▁shee": 3548, 
  "▁カラーブロック": 3549, 
  "▁Used": 3550, 
  "▁Heat": 3551, 
  "切り替えカットソー": 3552, 
  "▁Shape": 3553, 
  "カフス": 3554, 
  "mitis": 3555, 
  "ation": 3556, 
  "CHARI": 3557, 
  "▁Sherpa": 3558, 
  "スカジャン": 3559, 
  "~5": 3560, 
  "さ": 3561, 
  "▁Fift": 3562, 
  "特賣": 3563, 
  "▁PU": 3564, 
  "アンゴラ": 3565, 
  "▁Gestreept": 3566, 
  "フロントタック": 3567, 
  "▁CROPPED": 3568, 
  "コール": 3569, 
  "▁シャツワンピース": 3570, 
  "▁Banker": 3571, 
  "▁前": 3572, 
  "▁do": 3573, 
  "ロングベスト": 3574, 
  "▁Touch": 3575, 
  "▁JQ": 3576, 
  "コード": 3577, 
  "レイヤード風": 3578, 
  "9>": 3579, 
  "ループ": 3580, 
  "▁Weste": 3581, 
  "▁LIFE": 3582, 
  "▁no": 3583, 
  "age": 3584, 
  "▁WITH": 3585, 
  "▁リヨセル": 3586, 
  "666": 3587, 
  "▁John": 3588, 
  "aider": 3589, 
  "▁Bear": 3590, 
  "ビジュー付": 3591, 
  "紅": 3592, 
  "▁Samt": 3593, 
  "上": 3594, 
  "▁PK": 3595, 
  "テーラージャケット": 3596, 
  "▁Afe": 3597, 
  "▁オーバー": 3598, 
  "クロップドワイドパンツ": 3599, 
  "▁DOUBLE": 3600, 
  "ko": 3601, 
  "ki": 3602, 
  "▁ベージュ": 3603, 
  "▁ローゲージ": 3604, 
  "▁『": 3605, 
  "Up": 3606, 
  "ケ": 3607, 
  "it": 3608, 
  "▁バルーンスリーブ": 3609, 
  "フリルプルオーバー": 3610, 
  "nds": 3611, 
  "▁LL": 3612, 
  "VGC": 3613, 
  "限": 3614, 
  "▁ショルダー": 3615, 
  "リブトップス": 3616, 
  "▁サロペット": 3617, 
  "ビ": 3618, 
  "▁スキッパーシャツ": 3619, 
  "シルク": 3620, 
  "衿付き": 3621, 
  "リボン付き": 3622, 
  "ドロップ": 3623, 
  "▁テーラード": 3624, 
  "▁Glitzernde": 3625, 
  "▁Cri": 3626, 
  "プリントスカート": 3627, 
  "▁FUR": 3628, 
  "▁Ru": 3629, 
  "前結び": 3630, 
  "ache": 3631, 
  "▁ヴィンテージサテン": 3632, 
  "▁Essential": 3633, 
  "白": 3634, 
  "▁Dream": 3635, 
  "▁Mun": 3636, 
  "ポ": 3637, 
  "▁オルテガ柄": 3638, 
  "BE": 3639, 
  "OX": 3640, 
  "棉麻": 3641, 
  "ボードショーツ": 3642, 
  "▁Cool": 3643, 
  "五色": 3644, 
  "1000": 3645, 
  "▁It": 3646, 
  "▁BUTTON": 3647, 
  "ebek": 3648, 
  "rvelo": 3649, 
  "▁Strickpullover": 3650, 
  "▁embellish": 3651, 
  "Sommerkleid": 3652, 
  "▁幾何学柄": 3653, 
  "短袖上衣": 3654, 
  "スピンドル": 3655, 
  "▁Tranings": 3656, 
  "▁Arc": 3657, 
  "28": 3658, 
  "▁バックサテン": 3659, 
  "カシュクールワンピース": 3660, 
  "▁ラウンドネック": 3661, 
  "▁Army": 3662, 
  "▁ローン": 3663, 
  "32": 3664, 
  "RAL": 3665, 
  "リメイク": 3666, 
  "▁CA": 3667, 
  "ette": 3668, 
  "リブカットソー": 3669, 
  "▁CAMO": 3670, 
  "▁Rab": 3671, 
  "tical": 3672, 
  "オープンショルダー": 3673, 
  "▁ピンタック": 3674, 
  "五分": 3675, 
  "▁CLASSIC": 3676, 
  "▁Storm": 3677, 
  "711": 3678, 
  "▁カ": 3679, 
  "▁MILITARY": 3680, 
  "スリムパンツ": 3681, 
  "雪紡衫": 3682, 
  "▁Slacks": 3683, 
  "▁サイドプリーツ": 3684, 
  "▁Go": 3685, 
  "Pri": 3686, 
  "▁classic": 3687, 
  "▁siden": 3688, 
  "限定商品": 3689, 
  "▁Mac": 3690, 
  "ビジューニット": 3691, 
  "flower": 3692, 
  "BACK": 3693, 
  "▁BE": 3694, 
  "999": 3695, 
  "オフショルプルオーバー": 3696, 
  "appa": 3697, 
  "買": 3698, 
  "デコルテ": 3699, 
  "▁Cecil": 3700, 
  "▁ベスト": 3701, 
  "ビッグシルエット": 3702, 
  "▁AW": 3703, 
  "切り替えニット": 3704, 
  "ce": 3705, 
  "スーツ": 3706, 
  "▁リブ編み": 3707, 
  "プリーツワンピース": 3708, 
  "ni": 3709, 
  "emus": 3710, 
  "▁肩レース": 3711, 
  "iqui": 3712, 
  "one": 3713, 
  "▁パネル": 3714, 
  "22": 3715, 
  "▁Lady": 3716, 
  "▁ベルスリーブ": 3717, 
  "▁CONE": 3718, 
  "OK": 3719, 
  "arly": 3720, 
  "▁Ult": 3721, 
  "▁innowave": 3722, 
  "ストレッチジャケット": 3723, 
  "ARMY": 3724, 
  "▁Hellgrau": 3725, 
  "ct": 3726, 
  "▁Elastic": 3727, 
  "羽織": 3728, 
  "▁Figurbetonte": 3729, 
  "▁Dog": 3730, 
  "シルケット": 3731, 
  "▁Smart": 3732, 
  "TO": 3733, 
  "サマーニット": 3734, 
  "VJJ": 3735, 
  "ビエラ": 3736, 
  "夾克": 3737, 
  "▁バッククロス": 3738, 
  "▁タイト": 3739, 
  "▁schwarz": 3740, 
  "back": 3741, 
  "▁Spring": 3742, 
  "期": 3743, 
  "リブプルオーバー": 3744, 
  "半袖ワンピース": 3745, 
  "▁Smock": 3746, 
  "▁エステル": 3747, 
  "▁イレヘム": 3748, 
  "▁Chi": 3749, 
  "▁Breton": 3750, 
  "ペプラムブラウス": 3751, 
  "サキソニー": 3752, 
  "ラップ風スカート": 3753, 
  "か": 3754, 
  "▁szary": 3755, 
  "結婚式": 3756, 
  "▁異素材切り替え": 3757, 
  "切替ワンピース": 3758, 
  "▁1/2": 3759, 
  "▁デニムジャケット": 3760, 
  "owy": 3761, 
  "▁アルパカ混": 3762, 
  "▁Trunks": 3763, 
  "▁Kick": 3764, 
  "▁Singlet": 3765, 
  "リーフ": 3766, 
  "▁Anorak": 3767, 
  "▁Bomberjack": 3768, 
  "ストラップ": 3769, 
  "フレアースリーブ": 3770, 
  "バルーンスリーブ": 3771, 
  "日本製": 3772, 
  "チュニックニット": 3773, 
  "▁ローズ": 3774, 
  "ボーダーニットプルオーバー": 3775, 
  "▁LAYER": 3776, 
  "AN": 3777, 
  "▁Pop": 3778, 
  "▁裾フリル": 3779, 
  "▁falban": 3780, 
  "54": 3781, 
  "▁カットデニム": 3782, 
  "▁Retro": 3783, 
  "▁後": 3784, 
  "36": 3785, 
  "▁RAW": 3786, 
  "▁Laine": 3787, 
  "▁後ろリボン": 3788, 
  "肩": 3789, 
  "▁Andre": 3790, 
  "50": 3791, 
  "▁skjort": 3792, 
  "▁WHITE": 3793, 
  "パナマ": 3794, 
  "▁Fin": 3795, 
  "▁レギュラーフィット": 3796, 
  "▁CUFF": 3797, 
  "UB": 3798, 
  "▁AKM": 3799, 
  "▁Hand": 3800, 
  "▁Etoile": 3801, 
  "▁ブライト": 3802, 
  "黑色": 3803, 
  "動": 3804, 
  "▁Blues": 3805, 
  "▁シャツブラウス": 3806, 
  "ラン": 3807, 
  "ピケ": 3808, 
  "▁ワイドスリーブ": 3809, 
  "▁コットンツイル": 3810, 
  "ward": 3811, 
  "lay": 3812, 
  "▁OF": 3813, 
  "▁RIBBON": 3814, 
  "▁DC": 3815, 
  "▁drap": 3816, 
  "スト": 3817, 
  "デザインスカート": 3818, 
  "父の日": 3819, 
  "wood": 3820, 
  "▁Surf": 3821, 
  "ブソデ": 3822, 
  "▁BAR": 3823, 
  "時尚": 3824, 
  "千鳥": 3825, 
  "▁Made": 3826, 
  "▁Wattierte": 3827, 
  "ファーコート": 3828, 
  "▁Hipster": 3829, 
  "ピ": 3830, 
  "▁ドルマンスリーブ": 3831, 
  "NEW": 3832, 
  "ハ": 3833, 
  "フレア袖": 3834, 
  "ゴ": 3835, 
  "Pu": 3836, 
  "▁デニムワイドパンツ": 3837, 
  "▁Wolle": 3838, 
  "▁カシミヤタッチ": 3839, 
  "▁Team": 3840, 
  "Pocket": 3841, 
  "デザインプルオーバー": 3842, 
  "オープンカラーシャツ": 3843, 
  "裙": 3844, 
  "シフォンプルオーバー": 3845, 
  "▁シアーボーダー": 3846, 
  "▁Marni": 3847, 
  "センタープレスパンツ": 3848, 
  "▁Ivy": 3849, 
  "▁衿ビジュー": 3850, 
  "friend": 3851, 
  "會": 3852, 
  "工作": 3853, 
  "▁settimissimo": 3854, 
  "▁ON": 3855, 
  "▁Baumwollhemd": 3856, 
  "tuff": 3857, 
  "▁ロングシャツ": 3858, 
  "▁Schn": 3859, 
  "フレアパンツ": 3860, 
  "▁ざっくり": 3861, 
  "リブニットプルオーバー": 3862, 
  "8/25": 3863, 
  "▁Crash": 3864, 
  "ネルシャツ": 3865, 
  "▁リップルボーダー": 3866, 
  "▁Bermuda": 3867, 
  "Car": 3868, 
  "py": 3869, 
  "▁RVCA": 3870, 
  "▁Mrs": 3871, 
  "▁Bralette": 3872, 
  "サ": 3873, 
  "▁花刺繍": 3874, 
  "▁シルケット": 3875, 
  "▁am": 3876, 
  "▁Thongs": 3877, 
  "コクーンコート": 3878, 
  "▁Mod": 3879, 
  "▁Ice": 3880, 
  "▁TWILL": 3881, 
  "ガーター": 3882, 
  "ロゴパーカー": 3883, 
  "KK": 3884, 
  "DR": 3885, 
  "ビーバー": 3886, 
  "▁羽織": 3887, 
  "ネックチュニック": 3888, 
  "花柄ワンピース": 3889, 
  "彈力": 3890, 
  "▁ガウチョ": 3891, 
  "AAA": 3892, 
  "▁カットワーク": 3893, 
  "元商品請留意": 3894, 
  "折扣": 3895, 
  "▁Amina": 3896, 
  "ん": 3897, 
  "▁Desert": 3898, 
  "モダール": 3899, 
  "▁フラノ": 3900, 
  "▁Emerald": 3901, 
  "▁PLEATED": 3902, 
  "▁DAY": 3903, 
  "▁Ka": 3904, 
  "ET": 3905, 
  "ning": 3906, 
  "▁ミディ丈": 3907, 
  "帽": 3908, 
  "▁Strickjacke": 3909, 
  "▁gomme": 3910, 
  "▁Lined": 3911, 
  "(4": 3912, 
  "▁(4": 3913, 
  "▁EASY": 3914, 
  "▁バルーン": 3915, 
  "▁Eugen": 3916, 
  "▁ネイティブ": 3917, 
  "タイトミニスカート": 3918, 
  "▁Jogger": 3919, 
  "▁och": 3920, 
  "ワ": 3921, 
  "▁Mori": 3922, 
  "▁Leinenmischung": 3923, 
  "ジップパーカ": 3924, 
  "た": 3925, 
  "XXL": 3926, 
  "ペンシル": 3927, 
  "▁Kavaj": 3928, 
  "前後": 3929, 
  "▁Knielange": 3930, 
  "48": 3931, 
  "▁Ballonkleid": 3932, 
  "▁Karierte": 3933, 
  "ガ": 3934, 
  "ブロッキング": 3935, 
  "▁Antracit": 3936, 
  "フレアスリーブカットソー": 3937, 
  "sics": 3938, 
  "アンクル": 3939, 
  "▁スウェード": 3940, 
  "▁gemustert": 3941, 
  "花柄スカート": 3942, 
  "▁ヴィ": 3943, 
  "▁SW": 3944, 
  "▁◇": 3945, 
  "▁OG": 3946, 
  "ネックセーター": 3947, 
  "▁NAVY": 3948, 
  "rung": 3949, 
  "▁fur": 3950, 
  "▁Alpine": 3951, 
  "デニムタイトスカート": 3952, 
  "ngA": 3953, 
  "▁Pigment": 3954, 
  "▁Bodice": 3955, 
  "▁wool": 3956, 
  "ブロック": 3957, 
  "▁ラメ入り": 3958, 
  "▁OUT": 3959, 
  "ハイウエストパンツ": 3960, 
  "▁JERSEYS": 3961, 
  "▁TWEED": 3962, 
  "▁Grizzly": 3963, 
  "▁CHA": 3964, 
  "ノースリニット": 3965, 
  "モッズ": 3966, 
  "▁CF": 3967, 
  "ter": 3968, 
  "▁ru": 3969, 
  "▁Rou": 3970, 
  "ネックトップス": 3971, 
  "ショートジャケット": 3972, 
  "▁Snow": 3973, 
  "▁Knitwear": 3974, 
  "+5462>": 3975, 
  "▁Fairisle": 3976, 
  "▁Sukni": 3977, 
  "▁オープンショルダー": 3978, 
  "▁Insulate": 3979, 
  "▁ROCK": 3980, 
  "スキニーデニムパンツ": 3981, 
  "▁日本製": 3982, 
  "med": 3983, 
  "▁Fleur": 3984, 
  "▁ストライプシャツ": 3985, 
  "tion": 3986, 
  "▁ブロックチェック": 3987, 
  "ina": 3988, 
  "ネックリブニット": 3989, 
  "ODEN": 3990, 
  "イレギュラーヘム": 3991, 
  "ard": 3992, 
  "▁Verreos": 3993, 
  "▁Majestic": 3994, 
  "▁Any": 3995, 
  "onstrad": 3996, 
  "45": 3997, 
  "▁◆◆": 3998, 
  "ボート": 3999, 
  "▁LEG": 4000, 
  "90": 4001, 
  "tr": 4002, 
  "▁バックロング": 4003, 
  "▁track": 4004, 
  "ダウンブルゾン": 4005, 
  "▁Organic": 4006, 
  "▁Owen": 4007, 
  "ヨーク": 4008, 
  "クール": 4009, 
  "▁Icon": 4010, 
  "フェイクファー": 4011, 
  "tney": 4012, 
  "▁ミドルゲージ": 4013, 
  "棉質": 4014, 
  "オーバーオール": 4015, 
  "▁Rick": 4016, 
  "▁LEATHER": 4017, 
  "berry": 4018, 
  "▁ブークレー": 4019, 
  "▁ライン入り": 4020, 
  "▁Match": 4021, 
  "▁Exclusive": 4022, 
  "works": 4023, 
  "▁red": 4024, 
  "ハナガラ": 4025, 
  "男友": 4026, 
  "CL": 4027, 
  "▁送料無料": 4028, 
  "▁Amour": 4029, 
  "Large": 4030, 
  "▁ワンピ": 4031, 
  "▁Applique": 4032, 
  "ian": 4033, 
  "▁スカラップ刺繍": 4034, 
  "シフォンワンピース": 4035, 
  "▁Spets": 4036, 
  "▁Honey": 4037, 
  "▁Silberfarben": 4038, 
  "Boys": 4039, 
  "▁Tulip": 4040, 
  "サロペ": 4041, 
  "▁ランダムボーダー": 4042, 
  "▁ガウン": 4043, 
  "▁BlA": 4044, 
  "▁Pointelle": 4045, 
  "▁チュールスカート": 4046, 
  "▁Frank": 4047, 
  "バックレース": 4048, 
  "▁ブロック": 4049, 
  "】-": 4050, 
  "▁*[": 4051, 
  "カサネ": 4052, 
  "印": 4053, 
  "▁Jon": 4054, 
  "+4": 4055, 
  "▁ALOYE": 4056, 
  "肩開き": 4057, 
  "▁切替デザイン": 4058, 
  "ION": 4059, 
  "▁ロングスカート": 4060, 
  "▁80": 4061, 
  "HARMONY": 4062, 
  "ベルスリーブ": 4063, 
  "▁Stre": 4064, 
  "スリーブプルオーバー": 4065, 
  "▁スエット": 4066, 
  "▁肩フリル": 4067, 
  "リネン混": 4068, 
  "▁Nud": 4069, 
  "▁Boy": 4070, 
  "▁Turtle": 4071, 
  "▁Supreme": 4072, 
  "寬": 4073, 
  "▁Schnurung": 4074, 
  "バ": 4075, 
  "▁リネンコットン": 4076, 
  "▁Harley": 4077, 
  "▁Salt": 4078, 
  "切替え": 4079, 
  "スラブ天竺": 4080, 
  "情侶裝": 4081, 
  "point": 4082, 
  "▁Drapierte": 4083, 
  "ud": 4084, 
  "▁Loved": 4085, 
  "▁Sharkbit": 4086, 
  "▁Costume": 4087, 
  "着": 4088, 
  "開襟": 4089, 
  "▁レッド": 4090, 
  "▁ピンク": 4091, 
  "は": 4092, 
  "▁Kl": 4093, 
  "▁ブロードボタンダウン": 4094, 
  "▁DETAIL": 4095, 
  "▁Tall": 4096, 
  "多色": 4097, 
  "HALB": 4098, 
  "▁鹿の子": 4099, 
  "▁Waffle": 4100, 
  "假兩件": 4101, 
  "▁BD": 4102, 
  "フリンジニット": 4103, 
  "ネイビー": 4104, 
  "81>": 4105, 
  "▁El": 4106, 
  "▁Dobby": 4107, 
  "▁ロゴ入り": 4108, 
  "フード付": 4109, 
  "▁ウォッシャブルウール": 4110, 
  "藍": 4111, 
  "▁COOL": 4112, 
  "NO": 4113, 
  "▁楊柳": 4114, 
  "▁CC": 4115, 
  "-8/2": 4116, 
  "ファスナー": 4117, 
  "▁JERS": 4118, 
  "▁ボーダーカットソー": 4119, 
  "レオパード": 4120, 
  "コットンリネン": 4121, 
  "クルーネックカットソー": 4122, 
  "滿版": 4123, 
  "休閒長": 4124, 
  "織": 4125, 
  "カラーブロック": 4126, 
  "bar": 4127, 
  "▁ヘリンボン": 4128, 
  "ster": 4129, 
  "▁Ella": 4130, 
  "編みニット": 4131, 
  "▁星": 4132, 
  "チェックパンツ": 4133, 
  "ブークレー": 4134, 
  "▁Baseball": 4135, 
  "▁Winds": 4136, 
  "▁Misfit": 4137, 
  "▁カレッジ": 4138, 
  "染": 4139, 
  "ckig": 4140, 
  "▁COOLMAX": 4141, 
  "▁Bal": 4142, 
  "▁huva": 4143, 
  "カシュクールシャツ": 4144, 
  "▁ファッション": 4145, 
  "▁ジオメトリック": 4146, 
  "タイプ": 4147, 
  "ノースリーブシャツ": 4148, 
  "▁Flute": 4149, 
  "▁ウラケ": 4150, 
  "▁GOWN": 4151, 
  "▁falbankami": 4152, 
  "リブブルゾン": 4153, 
  "hield": 4154, 
  "▁ネックレス付き": 4155, 
  "▁グリーン": 4156, 
  "▁ボイル": 4157, 
  "▁Feli": 4158, 
  "▁Manches": 4159, 
  "リネンシャツ": 4160, 
  "フェイクレイヤード": 4161, 
  "▁Fancy": 4162, 
  "▁Pastel": 4163, 
  "ロールアップ": 4164, 
  "▁cut": 4165, 
  "デニムワンピース": 4166, 
  "IA": 4167, 
  "裏毛パーカー": 4168, 
  "▁Volang": 4169, 
  "lanning": 4170, 
  "zo": 4171, 
  "▁HEART": 4172, 
  "▁両": 4173, 
  "LESS": 4174, 
  "▁Liberty": 4175, 
  "Indigo": 4176, 
  "▁Czarna": 4177, 
  "タックフレア": 4178, 
  "SY": 4179, 
  "IC": 4180, 
  "縮口": 4181, 
  "リヨセル": 4182, 
  "▁Lime": 4183, 
  "▁ツイスト": 4184, 
  "▁マルチボーダーニット": 4185, 
  "▁WAVE": 4186, 
  "ノーカラーブルゾン": 4187, 
  "▁Applikationen": 4188, 
  "▁Cloud": 4189, 
  "ハーフスリーブ": 4190, 
  "▁秋": 4191, 
  "▁オパール": 4192, 
  "▁Claiborne": 4193, 
  "▁Culotte": 4194, 
  "ま": 4195, 
  "kt": 4196, 
  "プチハイネック": 4197, 
  "▁Snap": 4198, 
  "潮流嚴選韓版短袖": 4199, 
  "▁Weekend": 4200, 
  "フェイクムートンコート": 4201, 
  "atti": 4202, 
  "▁タックワイドパンツ": 4203, 
  "zip": 4204, 
  "▁Boxy": 4205, 
  "▁タックパンツ": 4206, 
  "▁ドットチュール": 4207, 
  "刷毛": 4208, 
  "ペ": 4209, 
  "フレアスリーブブラウス": 4210, 
  "▁Commuter": 4211, 
  "▁サマーニット": 4212, 
  "▁ORCIVAL": 4213, 
  "▁ボレロ": 4214, 
  "▁STITCH": 4215, 
  "レギパン": 4216, 
  "オルテガ": 4217, 
  "▁CHINO": 4218, 
  "タックテーパードパンツ": 4219, 
  "ノ": 4220, 
  "▁Reebok": 4221, 
  "▁モール": 4222, 
  "▁603/": 4223, 
  "II": 4224, 
  "▁Gu": 4225, 
  "▁Pajama": 4226, 
  "ym": 4227, 
  "▁Rost": 4228, 
  "め": 4229, 
  "RO": 4230, 
  "▁Cerise": 4231, 
  "▁Qummi": 4232, 
  "▁Leder": 4233, 
  "piece": 4234, 
  "▁フーデッド": 4235, 
  "▁千鳥": 4236, 
  "▁JUNI": 4237, 
  "お": 4238, 
  "ir": 4239, 
  "▁ショルダーレース": 4240, 
  "▁リボンベルト": 4241, 
  "ドレスシャツ": 4242, 
  "ネックシャツ": 4243, 
  "▁フレンチ": 4244, 
  "▁Skull": 4245, 
  "ショールカラーカーディガン": 4246, 
  "チビ": 4247, 
  "▁テンセルデニム": 4248, 
  "限量": 4249, 
  "▁Brons": 4250, 
  "▁Past": 4251, 
  "ump": 4252, 
  "ウォッシュ": 4253, 
  "▁Nurs": 4254, 
  "号": 4255, 
  "レイヤードプルオーバー": 4256, 
  "▁Pima": 4257, 
  "▁フロッキー": 4258, 
  "フリルニット": 4259, 
  "リブパンツ": 4260, 
  "▁Langarm": 4261, 
  "▁11": 4262, 
  "サテンブラウス": 4263, 
  "▁Drap": 4264, 
  "レトロ": 4265, 
  "each": 4266, 
  "▁Ken": 4267, 
  "▁CLOSET": 4268, 
  "ポンチプルオーバー": 4269, 
  "ve": 4270, 
  "▁フーデット": 4271, 
  "czka": 4272, 
  "FA": 4273, 
  "arm": 4274, 
  "▁Viskosemix": 4275, 
  "▁スリット入り": 4276, 
  "▁Wilson": 4277, 
  "▁Miu": 4278, 
  "▁サキソニー": 4279, 
  "上衣男裝": 4280, 
  "ナンバリング": 4281, 
  "omo": 4282, 
  "スモック": 4283, 
  "ワイドカットソー": 4284, 
  "▁ストリート": 4285, 
  "サーフ": 4286, 
  "▁ブランド": 4287, 
  "▁ハイ": 4288, 
  "▁トリアセ": 4289, 
  "▁Sweatshorts": 4290, 
  "▁Bond": 4291, 
  "ish": 4292, 
  "▁leather": 4293, 
  "▁ミドル丈": 4294, 
  "▁フレイドヘム": 4295, 
  "ビーズ": 4296, 
  "▁Gepunktete": 4297, 
  "▁Mustermix": 4298, 
  "ショールカラー": 4299, 
  "▁フリンジニット": 4300, 
  "タイダイ": 4301, 
  "▁Forma": 4302, 
  "▁ニットベスト": 4303, 
  "▁Bi": 4304, 
  "▁Vad": 4305, 
  "72": 4306, 
  "▁ス": 4307, 
  "IS": 4308, 
  "▁Bloom": 4309, 
  "カシミヤタッチ": 4310, 
  "+0141>": 4311, 
  "▁Athlet": 4312, 
  "う": 4313, 
  "スリーブブラウス": 4314, 
  "▁nesessaire": 4315, 
  "畦編み": 4316, 
  "アクリル": 4317, 
  "▁フライス": 4318, 
  "▁DOT": 4319, 
  "▁LOVE": 4320, 
  "刺繍ワンピース": 4321, 
  "▁エスニック": 4322, 
  "▁Er": 4323, 
  "ブラ": 4324, 
  "ES": 4325, 
  "▁AS": 4326, 
  "▁Dit": 4327, 
  "▁CABLE": 4328, 
  "ler": 4329, 
  "▁Polar": 4330, 
  "ショートスリーブ": 4331, 
  "プレーティング": 4332, 
  "▁Shimmer": 4333, 
  "▁GD": 4334, 
  "isque": 4335, 
  "ディテール": 4336, 
  "サック": 4337, 
  "BH": 4338, 
  "半袖ポロシャツ": 4339, 
  "▁Three": 4340, 
  "美式": 4341, 
  "▁Ba": 4342, 
  "▁ウエストタック": 4343, 
  "▁Tassel": 4344, 
  "pende": 4345, 
  "▁ステンカラーコート": 4346, 
  "Design": 4347, 
  "ow": 4348, 
  "▁Jogging": 4349, 
  "八分袖": 4350, 
  "▁エ": 4351, 
  "TI": 4352, 
  "裏毛ワンピース": 4353, 
  "▁Kurzmantel": 4354, 
  "イレヘムスカート": 4355, 
  "▁スプリング": 4356, 
  "▁polo": 4357, 
  "▁ボウタイ": 4358, 
  "―": 4359, 
  "バギーパンツ": 4360, 
  "▁Viscose": 4361, 
  "グラデ": 4362, 
  "leggings": 4363, 
  "大學": 4364, 
  "NP": 4365, 
  "通": 4366, 
  "▁NIKE": 4367, 
  "ワイドリブニット": 4368, 
  "va": 4369, 
  "▁kieszeniami": 4370, 
  "dress": 4371, 
  "▁bawe": 4372, 
  "▁ミリタリーシャツ": 4373, 
  "▁モヘア": 4374, 
  "▁リーフ柄": 4375, 
  "▁Batist": 4376, 
  "フードパーカー": 4377, 
  "ドルマンカットソー": 4378, 
  "▁Glitzer": 4379, 
  "雙色": 4380, 
  "▁フラワーモチーフ": 4381, 
  "mitation": 4382, 
  "ネップ": 4383, 
  "▁ラウンド": 4384, 
  "フードブルゾン": 4385, 
  "アウター": 4386, 
  "▁23": 4387, 
  "▁Lily": 4388, 
  "ジップブルゾン": 4389, 
  "ニットワンピ": 4390, 
  "ブル": 4391, 
  "翻領": 4392, 
  "Svart": 4393, 
  "▁ASYMMETRIC": 4394, 
  "▁Floyd": 4395, 
  "▁メモリー": 4396, 
  "▁袖シフォン": 4397, 
  "REPE": 4398, 
  "▁jacquard": 4399, 
  "▁フィット": 4400, 
  "▁Resort": 4401, 
  "▁スエード調": 4402, 
  "▁DANTON": 4403, 
  "▁Golden": 4404, 
  "▁trim": 4405, 
  "▁Os": 4406, 
  "▁Paris": 4407, 
  "/8": 4408, 
  "▁マキシ丈": 4409, 
  "▁adidas": 4410, 
  "規": 4411, 
  "▁Elastische": 4412, 
  "▁Melierte": 4413, 
  "790": 4414, 
  "▁ネップ": 4415, 
  "デザインシャツ": 4416, 
  "▁Underwire": 4417, 
  "イージーショーツ": 4418, 
  "▁BM": 4419, 
  "▁レザー": 4420, 
  "▁ステッチ": 4421, 
  "ラップ風": 4422, 
  "Cocktailkleid": 4423, 
  "▁Dunkle": 4424, 
  "▁バンダナ柄": 4425, 
  "▁◆[": 4426, 
  "▁SOFT": 4427, 
  "arbour": 4428, 
  "▁スパンコール": 4429, 
  "▁Tube": 4430, 
  "▁Plac": 4431, 
  "▁WC": 4432, 
  "▁Yoke": 4433, 
  "mple": 4434, 
  "▁Dead": 4435, 
  "&#8482": 4436, 
  "▁Primitiv": 4437, 
  "▁Wickelkleid": 4438, 
  "入": 4439, 
  "+8932>【09": 4440, 
  "▁HOOD": 4441, 
  "▁正": 4442, 
  "比翼": 4443, 
  "ジップアップ": 4444, 
  "muse": 4445, 
  "ベアトップ": 4446, 
  "at": 4447, 
  "▁Aqua": 4448, 
  "▁Petrol": 4449, 
  "ストレッチテーパードパンツ": 4450, 
  "取扱": 4451, 
  "uffy": 4452, 
  "▁Bio": 4453, 
  "▁Popeline": 4454, 
  "logo": 4455, 
  "▁レースデザイン": 4456, 
  "レースタンク": 4457, 
  "▁Shower": 4458, 
  "ncle": 4459, 
  "▁マイクロ": 4460, 
  "pen": 4461, 
  "ROBE": 4462, 
  "袖口": 4463, 
  "▁Pajamas": 4464, 
  "▁POP": 4465, 
  "▁time": 4466, 
  "ゴム": 4467, 
  "コンビワンピース": 4468, 
  "▁ソデ": 4469, 
  "SUPERIOR": 4470, 
  "▁Ol": 4471, 
  "タックワイド": 4472, 
  "センタープレス": 4473, 
  "▁Korta": 4474, 
  "裾レース": 4475, 
  "シングル": 4476, 
  "Blumen": 4477, 
  "JOC": 4478, 
  "ベイカーパンツ": 4479, 
  "▁クラシカル": 4480, 
  "▁Butl": 4481, 
  "▁Roxy": 4482, 
  "ワン": 4483, 
  "-65": 4484, 
  "▁マ": 4485, 
  "▁ポリエステル": 4486, 
  "NI": 4487, 
  "オーバーシャツ": 4488, 
  "baix": 4489, 
  "中綿ブルゾン": 4490, 
  "▁レーススリーブ": 4491, 
  "▁Flock": 4492, 
  "▁起毛レース": 4493, 
  "remium": 4494, 
  "▁Coach": 4495, 
  "▁牛仔": 4496, 
  "フーデットコート": 4497, 
  "41": 4498, 
  "▁Distressed": 4499, 
  "▁Opal": 4500, 
  "▁breast": 4501, 
  "▁タックスカート": 4502, 
  "マーメイドスカート": 4503, 
  "▁ニ": 4504, 
  ".4": 4505, 
  "▁DS": 4506, 
  "▁カシミヤ混": 4507, 
  "ヘンリー": 4508, 
  "▁ママ": 4509, 
  "カレッジ": 4510, 
  "▁タックフレアスカート": 4511, 
  "▁クレイジー": 4512, 
  "SHOP": 4513, 
  "▁Malo": 4514, 
  "▁モッズコート": 4515, 
  "イレギュラーヘムスカート": 4516, 
  "▁Velours": 4517, 
  "▁Ann": 4518, 
  "▁double": 4519, 
  "カラーシャツ": 4520, 
  "ネックレス付": 4521, 
  "エリ": 4522, 
  "acy": 4523, 
  "▁Latz": 4524, 
  "▁Bade": 4525, 
  "▁40/-": 4526, 
  "ミモレ": 4527, 
  "スキニーデニム": 4528, 
  "Rut": 4529, 
  "tyl": 4530, 
  "ケーブル編みニット": 4531, 
  "メモリー": 4532, 
  "▁バ": 4533, 
  "▁TUCK": 4534, 
  "▁Housemark": 4535, 
  "▁Little": 4536, 
  "▁ドッキングワンピース": 4537, 
  "▁長袖レギュラー": 4538, 
  "▁leg": 4539, 
  "オフ": 4540, 
  "▁PL": 4541, 
  "quilt": 4542, 
  "ストレートジーンズ": 4543, 
  "▁Turquoise": 4544, 
  "▁Rosie": 4545, 
  "arp": 4546, 
  "Stil": 4547, 
  "▁マキシ": 4548, 
  "▁Panelled": 4549, 
  "ジャ": 4550, 
  "総レース": 4551, 
  "▁front": 4552, 
  "ナガソデ": 4553, 
  "ella": 4554, 
  "▁Chiffontunika": 4555, 
  "▁Spitzenshirt": 4556, 
  "▁PINK": 4557, 
  "▁深": 4558, 
  "▁Pearl": 4559, 
  "リブタートル": 4560, 
  "ロゴプルパーカー": 4561, 
  "44": 4562, 
  "▁BOMBER": 4563, 
  "クルーネックニットカーディガン": 4564, 
  "掲載": 4565, 
  "ポリエステル": 4566, 
  "▁paski": 4567, 
  "▁梨地": 4568, 
  "▁PUFF": 4569, 
  "▁LIBERTY": 4570, 
  "ba": 4571, 
  "スカ": 4572, 
  "oil": 4573, 
  "▁bez": 4574, 
  "owkowa": 4575, 
  "▁デシン": 4576, 
  "カットデニム": 4577, 
  "TYPE": 4578, 
  "▁Colourblock": 4579, 
  "▁George": 4580, 
  "ギャザーパンツ": 4581, 
  "Knit": 4582, 
  "▁ImprimAc": 4583, 
  "TEX": 4584, 
  "▁BS": 4585, 
  "ウールニット": 4586, 
  "DD": 4587, 
  "▁リメイク": 4588, 
  "CZ": 4589, 
  "▁2016": 4590, 
  "▁バンダナ": 4591, 
  "▁NUMBER": 4592, 
  "プルオーバーブラウス": 4593, 
  "▁Duk": 4594, 
  "▁紺": 4595, 
  "フェイクレザー": 4596, 
  "英字": 4597, 
  "▁半袖プルオーバー": 4598, 
  "リンクス": 4599, 
  "spA": 4600, 
  "▁ライダース": 4601, 
  "チュニックプルオーバー": 4602, 
  "▁バンドカラー": 4603, 
  "クロプト": 4604, 
  "▁cb": 4605, 
  "▁ラッセルレース": 4606, 
  "ショートカーディガン": 4607, 
  "▁WA": 4608, 
  "指": 4609, 
  "▁チュールレース": 4610, 
  "カラーニット": 4611, 
  "▁LO": 4612, 
  "▁冬服": 4613, 
  "▁Pen": 4614, 
  "▁黑色": 4615, 
  "Ray": 4616, 
  "▁トロワ": 4617, 
  "ドットプリント": 4618, 
  "▁Kamizelka": 4619, 
  "▁MULTI": 4620, 
  "TH": 4621, 
  "Neig": 4622, 
  "▁Signature": 4623, 
  "中": 4624, 
  "▁crep": 4625, 
  "2000": 4626, 
  "▁Bou": 4627, 
  "バックレースアップ": 4628, 
  "原宿": 4629, 
  "̈": 4630, 
  "▁curt": 4631, 
  "スリムスラックス": 4632, 
  "▁麻レーヨン": 4633, 
  "IO": 4634, 
  "ネル": 4635, 
  "▁合皮": 4636, 
  "▁キャンディスリーブ": 4637, 
  "KNIT": 4638, 
  "▁ribb": 4639, 
  "以": 4640, 
  "オープン": 4641, 
  "polo": 4642, 
  "▁Lila": 4643, 
  "前ボタン": 4644, 
  "+54": 4645, 
  "▁MESH": 4646, 
  "▁総針": 4647, 
  "下": 4648, 
  "rmeln": 4649, 
  "コルセット": 4650, 
  "▁actuel": 4651, 
  "サーキュラー": 4652, 
  "▁ケミカル": 4653, 
  "▁衿付き": 4654, 
  "▁ファンシーツイード": 4655, 
  "▁Christina": 4656, 
  "▁サイドレース": 4657, 
  "▁Blossom": 4658, 
  "▁Lt": 4659, 
  "▁Combo": 4660, 
  "ストライププルオーバー": 4661, 
  "▁Blanc": 4662, 
  "ers": 4663, 
  "ネイティブ柄": 4664, 
  "▁For": 4665, 
  "▁PLEAT": 4666, 
  "▁ウエストギャザー": 4667, 
  "▁19": 4668, 
  "▁ヘム": 4669, 
  "バンドカラーシャツ": 4670, 
  "コーティング": 4671, 
  "▁Golf": 4672, 
  "▁Breath": 4673, 
  "51>": 4674, 
  "Maxikleid": 4675, 
  "ストレッチツイル": 4676, 
  "コーデュロイワイドパンツ": 4677, 
  "▁Raspberry": 4678, 
  "▁volanger": 4679, 
  "ハイネックブラウス": 4680, 
  "▁ふんわり": 4681, 
  "▁cs": 4682, 
  "▁Ruschen": 4683, 
  "air": 4684, 
  "▁velvet": 4685, 
  "ワイドクロップドパンツ": 4686, 
  "▁Tree": 4687, 
  "EANA": 4688, 
  "go": 4689, 
  "INA": 4690, 
  "▁spoon": 4691, 
  "▁Elbow": 4692, 
  "手": 4693, 
  "hbor": 4694, 
  "衛衣": 4695, 
  "ニュアンス": 4696, 
  "▁ジャージー": 4697, 
  "▁Marc": 4698, 
  "ョ": 4699, 
  "ケープ": 4700, 
  "ストレッチスキニーパンツ": 4701, 
  "New": 4702, 
  "▁DAYS": 4703, 
  "PRT": 4704, 
  "エスニック": 4705, 
  "▁all": 4706, 
  "▁ジョガーパンツ": 4707, 
  "+8932>→": 4708, 
  "▁Gelb": 4709, 
  "▁ブロッキング": 4710, 
  "▁7/8": 4711, 
  "▁Jungle": 4712, 
  "▁et": 4713, 
  "▁襟付き": 4714, 
  "▁Schalkragen": 4715, 
  "タックギャザースカート": 4716, 
  "▁Hampton": 4717, 
  "▁RF": 4718, 
  "▁パンク": 4719, 
  "▁Fly": 4720, 
  "バンダナ": 4721, 
  "熱賣": 4722, 
  "▁Wild": 4723, 
  "ストライプパンツ": 4724, 
  "▁Twin": 4725, 
  "カラーパンツ": 4726, 
  "▁preto": 4727, 
  "▁Altrosa": 4728, 
  "▁CROSS": 4729, 
  "▁Charm": 4730, 
  "▁Cocktail": 4731, 
  "▁Kapuzenjacke": 4732, 
  "生地": 4733, 
  "nah": 4734, 
  "RI": 4735, 
  "デニムショートパンツ": 4736, 
  "▁Marie": 4737, 
  "▁Old": 4738, 
  "ジップアップパーカー": 4739, 
  "62": 4740, 
  "▁huvtr": 4741, 
  "〓": 4742, 
  "こ": 4743, 
  "net": 4744, 
  "潮流嚴選字母": 4745, 
  "990】": 4746, 
  "▁Crushed": 4747, 
  "Wink": 4748, 
  "▁ストレッチテーパードパンツ": 4749, 
  "▁Glittrig": 4750, 
  "▁Adrian": 4751, 
  "rada": 4752, 
  "ブルー": 4753, 
  "▁LG": 4754, 
  "▁LIMITED": 4755, 
  "透かし": 4756, 
  "▁杢調": 4757, 
  "melange": 4758, 
  "▁Huvtr": 4759, 
  "キーネック": 4760, 
  "+0104>": 4761, 
  "▁Neckholder": 4762, 
  "▁タックフレア": 4763, 
  "▁Scallop": 4764, 
  "パギンス": 4765, 
  "ワンポイント": 4766, 
  "te": 4767, 
  "▁Sundress": 4768, 
  "▁コットンシルク": 4769, 
  "▁200": 4770, 
  "▁Lemon": 4771, 
  "16(": 4772, 
  "▁レースキャミ": 4773, 
  "ドッキングプルオーバー": 4774, 
  "oundstooth": 4775, 
  "rown": 4776, 
  "▁CITY": 4777, 
  "インレイ": 4778, 
  "heart": 4779, 
  "▁Flame": 4780, 
  "▁ファイン": 4781, 
  "▁Peas": 4782, 
  "▁168": 4783, 
  "▁EMBROIDERY": 4784, 
  "ミモレ丈": 4785, 
  "23": 4786, 
  "▁LOOSE": 4787, 
  "▁Slit": 4788, 
  "▁Bund": 4789, 
  "▁バルキー": 4790, 
  "ふわ": 4791, 
  "▁Roses": 4792, 
  "▁Seiden": 4793, 
  "ケーブルプルオーバー": 4794, 
  "好評": 4795, 
  "ワイドサロペット": 4796, 
  "▁tiulowa": 4797, 
  "フォトプリント": 4798, 
  "面": 4799, 
  "▁マウンテンパーカー": 4800, 
  "▁ストレッチポンチ": 4801, 
  "ネックニットトップス": 4802, 
  "タックカットソー": 4803, 
  "Mantel": 4804, 
  "▁ボタニカルプリント": 4805, 
  "ハイ": 4806, 
  "▁スライバー": 4807, 
  "▁ランダムストライプ": 4808, 
  "ギャザーワンピース": 4809, 
  "ast": 4810, 
  "ター": 4811, 
  "len": 4812, 
  "▁花柄プリント": 4813, 
  "dd": 4814, 
  "レー": 4815, 
  "▁Aeron": 4816, 
  "47": 4817, 
  "▁ラッセル": 4818, 
  "ビジュー付き": 4819, 
  "▁Avalon": 4820, 
  "▁Apricot": 4821, 
  "▁DOWN": 4822, 
  "▁13": 4823, 
  "▁Peter": 4824, 
  "哈倫": 4825, 
  "▁Dunkelgr": 4826, 
  "▁Katoen": 4827, 
  "テレコプルオーバー": 4828, 
  "▁BARDOT": 4829, 
  "フリンジプルオーバー": 4830, 
  "▁Fend": 4831, 
  "ワッシャー": 4832, 
  "スリーブニット": 4833, 
  "▁Inde": 4834, 
  "derad": 4835, 
  "▁Boo": 4836, 
  "▁Seal": 4837, 
  "▁BLOCK": 4838, 
  "▁Smoking": 4839, 
  "▁Size": 4840, 
  "ラウンドネックニット": 4841, 
  "arah": 4842, 
  "ダッフル": 4843, 
  "グレー": 4844, 
  "合皮": 4845, 
  "▁ダウン": 4846, 
  "スリットスカート": 4847, 
  "ハオリ": 4848, 
  "▁GREY": 4849, 
  "▁起毛チェック": 4850, 
  "ベル": 4851, 
  "フラワープリントスカート": 4852, 
  "▁DONNA": 4853, 
  "▁ANKLE": 4854, 
  "▁ジップアップ": 4855, 
  "ho": 4856, 
  "▁ループ": 4857, 
  "▁ファー付": 4858, 
  "▁See": 4859, 
  "ミドルスカート": 4860, 
  "LK": 4861, 
  "ピン": 4862, 
  "▁hal": 4863, 
  "SLV": 4864, 
  "43": 4865, 
  "▁Tartan": 4866, 
  "▁Godet": 4867, 
  "ver": 4868, 
  "LINE": 4869, 
  "▁レースドッキング": 4870, 
  "スソ": 4871, 
  "▁プレーン": 4872, 
  "シス": 4873, 
  "▁ボーダー切り替え": 4874, 
  "▁バックプリーツ": 4875, 
  "▁Outdoor": 4876, 
  "▁シシュウ": 4877, 
  "▁女子会": 4878, 
  "TALL": 4879, 
  "95": 4880, 
  "款": 4881, 
  "▁レースブラウス": 4882, 
  "送料無料": 4883, 
  "線": 4884, 
  "▁CREWNECK": 4885, 
  "ら": 4886, 
  "▁シャドーチェック": 4887, 
  "恤上衣男": 4888, 
  "セーラー": 4889, 
  "through": 4890, 
  "フウ": 4891, 
  "▁ハナガラ": 4892, 
  "▁Longbluse": 4893, 
  "裏": 4894, 
  "kah": 4895, 
  "▁VIN": 4896, 
  "▁スタンド": 4897, 
  "colored": 4898, 
  "▁Boxers": 4899, 
  "サカリバ": 4900, 
  "Lo": 4901, 
  "天竺プルオーバー": 4902, 
  "ふんわり": 4903, 
  "▁Hybrid": 4904, 
  "▁Casa": 4905, 
  "ボアコート": 4906, 
  "ダメージデニム": 4907, 
  "圖案": 4908, 
  "88": 4909, 
  "▁レーヨン混": 4910, 
  "キャンディスリーブ": 4911, 
  "刺しゅうブラウス": 4912, 
  "▁シングル": 4913, 
  "ち": 4914, 
  "GW": 4915, 
  "ベイカー": 4916, 
  "み": 4917, 
  "▁Man": 4918, 
  "▁潮流短": 4919, 
  "+71": 4920, 
  "フェイクスエード": 4921, 
  "WPT": 4922, 
  "カラーブラウス": 4923, 
  "ストレッチワイドパンツ": 4924, 
  "ige": 4925, 
  "スイッチ": 4926, 
  "▁Cascad": 4927, 
  "▁Destroy": 4928, 
  "▁ラ": 4929, 
  "os": 4930, 
  "eme": 4931, 
  "フル": 4932, 
  "▁Coated": 4933, 
  "▁FACE": 4934, 
  "▁Overshirt": 4935, 
  "サルエルパンツ": 4936, 
  "美": 4937, 
  "ウィンドペン": 4938, 
  "水": 4939, 
  "ドロップショルダーニット": 4940, 
  "▁ノーカラーコート": 4941, 
  "3>": 4942, 
  "▁ORIGINAL": 4943, 
  "▁Semi": 4944, 
  "Minnie": 4945, 
  "レースカットソー": 4946, 
  "高腰": 4947, 
  "▁SLEEVELESS": 4948, 
  "リン": 4949, 
  "onkey": 4950, 
  "ウォーム": 4951, 
  "前開き": 4952, 
  "プリントカットソー": 4953, 
  "▁ヘンリーネック": 4954, 
  "花刺繍": 4955, 
  "▁MY": 4956, 
  "▁タータンチェック": 4957, 
  "▁服": 4958, 
  "▁Fox": 4959, 
  "sk": 4960, 
  "▁Park": 4961, 
  "▁Rocha": 4962, 
  "ツイードワンピース": 4963, 
  "ペイント": 4964, 
  "▁u": 4965, 
  "▁サイドレースアップ": 4966, 
  "ミッキーマウス": 4967, 
  "▁Paradise": 4968, 
  "プリントシャツ": 4969, 
  "▁Har": 4970, 
  "▁ME": 4971, 
  "▁プチハイネック": 4972, 
  "ラミー": 4973, 
  "▁ARMY": 4974, 
  "膝丈スカート": 4975, 
  "ite": 4976, 
  "定": 4977, 
  "3.0": 4978, 
  "io": 4979, 
  "▁ボタン": 4980, 
  "フリルワンピース": 4981, 
  "▁Chiffonshirt": 4982, 
  "タックショートパンツ": 4983, 
  "▁Tra": 4984, 
  "▁Broderi": 4985, 
  "ノースリプルオーバー": 4986, 
  "33": 4987, 
  "▁リーフ": 4988, 
  "▁バックタック": 4989, 
  "▁Mohair": 4990, 
  "▁505": 4991, 
  "▁ナチュラル": 4992, 
  "▁Close": 4993, 
  "ona": 4994, 
  "▁柄シャツ": 4995, 
  "▁Seide": 4996, 
  "ランダムボーダー": 4997, 
  "ハイウエストワイドパンツ": 4998, 
  "▁gla": 4999, 
  "片": 5000, 
  "▁Ring": 5001, 
  "RV": 5002, 
  "ロゴ刺繍": 5003, 
  "男式": 5004, 
  "▁REDA": 5005, 
  "リラックスパンツ": 5006, 
  "▁Zero": 5007, 
  "プリーツロングスカート": 5008, 
  "▁ピグメント": 5009, 
  "▁spodnie": 5010, 
  "手洗い可能": 5011, 
  "zaniem": 5012, 
  "コーデュロイパンツ": 5013, 
  "▁バックデザイン": 5014, 
  "▁クールマックス": 5015, 
  "▁DAVIS": 5016, 
  "▁Mouse": 5017, 
  "長袖カットソー": 5018, 
  "uxedo": 5019, 
  "チェ": 5020, 
  "▁Mary": 5021, 
  "▁Baker": 5022, 
  "ガウンワンピース": 5023, 
  "ウェア": 5024, 
  "抓破": 5025, 
  "▁Ted": 5026, 
  "NK": 5027, 
  "抽鬚": 5028, 
  "ミリタリーブルゾン": 5029, 
  "73": 5030, 
  "買一送一": 5031, 
  "ナロー": 5032, 
  "37": 5033, 
  "▁トロピカル": 5034, 
  "裏毛スウェット": 5035, 
  "▁紅色": 5036, 
  "スタンダード": 5037, 
  "韓版修身": 5038, 
  "フォルム": 5039, 
  "フェザーヤーン": 5040, 
  "▁コードレース": 5041, 
  "▁マキシスカート": 5042, 
  "▁ワーク": 5043, 
  "舒適": 5044, 
  "▁Stripes": 5045, 
  "▁Burnt": 5046, 
  "▁刺繍レース": 5047, 
  "▁レーシー": 5048, 
  "▁Thin": 5049, 
  "▁Puffer": 5050, 
  "EL": 5051, 
  "▁クール": 5052, 
  "▁ウィンドペン": 5053, 
  "▁city": 5054, 
  "▁Fuchsia": 5055, 
  "カットワーク": 5056, 
  "騎士": 5057, 
  "▁Notch": 5058, 
  "毛衣": 5059, 
  "▁Boxershort": 5060, 
  "カモ": 5061, 
  "▁麻灰": 5062, 
  "▁falbanami": 5063, 
  "フレンチスリーブカットソー": 5064, 
  "▁Ver": 5065, 
  "▁PLAID": 5066, 
  "▁Banks": 5067, 
  "ulin": 5068, 
  "対応": 5069, 
  "▁jack": 5070, 
  "▁czerwona": 5071, 
  "▁granatowa": 5072, 
  "▁Rain": 5073, 
  "レース使い": 5074, 
  "▁デコルテ": 5075, 
  "スカラ": 5076, 
  "▁closet": 5077, 
  "▁デイリー": 5078, 
  "カットソープルオーバー": 5079, 
  "Americana": 5080, 
  "▁ポケ": 5081, 
  "▁Barc": 5082, 
  "rosa": 5083, 
  "▁フロントスリット": 5084, 
  "▁スーパー": 5085, 
  "フレンチリネン": 5086, 
  "82": 5087, 
  "レギュラー": 5088, 
  "▁ビック": 5089, 
  "▁Flex": 5090, 
  "式": 5091, 
  "アミ": 5092, 
  "68": 5093, 
  "▁Motiv": 5094, 
  "▁アーガイル": 5095, 
  "Jumpsuit": 5096, 
  "utter": 5097, 
  "開襟シャツ": 5098, 
  "▁オルテガ": 5099, 
  "▁100": 5100, 
  "▁Mis": 5101, 
  "UJP": 5102, 
  "フーデット": 5103, 
  "▁CASSI": 5104, 
  "▁Baumwollkleid": 5105, 
  "段": 5106, 
  "▁Dispark": 5107, 
  "▁Dusted": 5108, 
  "▁デザインカットソー": 5109, 
  "▁Muster": 5110, 
  "ビンテージ": 5111, 
  "っ": 5112, 
  "▁モノトーン": 5113, 
  "▁Tea": 5114, 
  "▁PIECE": 5115, 
  "pe": 5116, 
  "▁biker": 5117, 
  "elles": 5118, 
  "Piece": 5119, 
  "lly": 5120, 
  "▁Vests": 5121, 
  "][": 5122, 
  "PNT": 5123, 
  "▁Triple": 5124, 
  "台": 5125, 
  "▁Twinset": 5126, 
  "Hemdbluse": 5127, 
  "ティー": 5128, 
  "FW": 5129, 
  "▁SPODNI": 5130, 
  "▁grey": 5131, 
  "▁Pflaume": 5132, 
  "ARTH": 5133, 
  "アニマル": 5134, 
  "▁puff": 5135, 
  "RED": 5136, 
  "ビスコース混": 5137, 
  "貼布": 5138, 
  "5620": 5139, 
  "アップ": 5140, 
  "▁ダウンコート": 5141, 
  "▁Lola": 5142, 
  "57": 5143, 
  "▁Ink": 5144, 
  "UFF": 5145, 
  "▁Comma": 5146, 
  "▁フリル袖": 5147, 
  "Blusenshirt": 5148, 
  "プレーン": 5149, 
  "綠": 5150, 
  "“": 5151, 
  "サッカー": 5152, 
  "▁Walk": 5153, 
  "710": 5154, 
  "▁シ": 5155, 
  "サマー": 5156, 
  "休閒短": 5157, 
  "▁コラボ": 5158, 
  "▁Cup": 5159, 
  "▁2/2": 5160, 
  "▁Sti": 5161, 
  "▁スピンドル": 5162, 
  "▁Halter": 5163, 
  "▁Sonia": 5164, 
  "▁Fantasi": 5165, 
  "▁jersey": 5166, 
  "▁ラミー": 5167, 
  "破": 5168, 
  "Ac": 5169, 
  "潮流嚴選日系": 5170, 
  "▁series": 5171, 
  "▁Mandi": 5172, 
  "コットン天竺": 5173, 
  "nierzykiem": 5174, 
  "▁Cover": 5175, 
  "▁ne": 5176, 
  "▁レース付": 5177, 
  "○": 5178, 
  "ポンチカットソー": 5179, 
  "フェザーニット": 5180, 
  "icki": 5181, 
  "▁ハートネック": 5182, 
  "ドルマンニットプルオーバー": 5183, 
  "スタンドネック": 5184, 
  "▁Overall": 5185, 
  "検索番号": 5186, 
  "▁強撚": 5187, 
  "lee": 5188, 
  "lace": 5189, 
  "▁neckline": 5190, 
  "▁Empire": 5191, 
  "▁バックプリント": 5192, 
  "▁Pea": 5193, 
  "91": 5194, 
  "▁PANEL": 5195, 
  "GUESS": 5196, 
  "ねこ": 5197, 
  "▁Ljusbla": 5198, 
  "▁Gina": 5199, 
  "▁Mais": 5200, 
  "Shirtkleid": 5201, 
  "▁Lederimitat": 5202, 
  "スモックブラウス": 5203, 
  "▁Tone": 5204, 
  "スリーブカットソー": 5205, 
  "▁twill": 5206, 
  "▁パ": 5207, 
  "ニットタイトスカート": 5208, 
  "シャツチュニック": 5209, 
  "Strickkleid": 5210, 
  "▁Cheeky": 5211, 
  "▁falbank": 5212, 
  "ボリュームスリーブブラウス": 5213, 
  "▁California": 5214, 
  ".3": 5215, 
  "▁Tape": 5216, 
  "▁Wire": 5217, 
  "肩リボン": 5218, 
  "鑽": 5219, 
  "モッサ": 5220, 
  "▁OLIVE": 5221, 
  "▁Scrubs": 5222, 
  "リボンスリーブ": 5223, 
  "▁Kenz": 5224, 
  "RAI": 5225, 
  "地柄": 5226, 
  "け": 5227, 
  "▁ウエストマーク": 5228, 
  "▁TCR": 5229, 
  "サスペンダー": 5230, 
  "off": 5231, 
  "▁ギャザースリーブ": 5232, 
  "開": 5233, 
  "ジャガードスカート": 5234, 
  "▁装飾": 5235, 
  "▁MADE": 5236, 
  "▁Mono": 5237, 
  "▁スクエアネック": 5238, 
  "ハッピーペイント": 5239, 
  "衿付": 5240, 
  "ポケツキ": 5241, 
  "分袖ニット": 5242, 
  "▁ロゴ刺繍": 5243, 
  "ska": 5244, 
  "IE": 5245, 
  "sen": 5246, 
  "▁EDWIN": 5247, 
  "▁MARBLE": 5248, 
  "Metallica": 5249, 
  "▁ワイシャツ": 5250, 
  "▁モヘヤ混": 5251, 
  "▁アイレット": 5252, 
  "ciem": 5253, 
  "デザイントップス": 5254, 
  "≫": 5255, 
  "ony": 5256, 
  "▁skinny": 5257, 
  "雪紡": 5258, 
  "ビスコース": 5259, 
  "/5": 5260, 
  "▁Bleu": 5261, 
  "NJ": 5262, 
  "▁袖口": 5263, 
  "ジップアップブルゾン": 5264, 
  "▁お散歩": 5265, 
  "ロゴスウェット": 5266, 
  "洋裝": 5267, 
  "▁《6/": 5268, 
  "▁Diamante": 5269, 
  "▁cold": 5270, 
  "▁バックボタン": 5271, 
  "ジョグパンツ": 5272, 
  "▁SPOT": 5273, 
  "オフショルワンピース": 5274, 
  "バックサテン": 5275, 
  "▁フォト": 5276, 
  "▁Chain": 5277, 
  "吸汗速乾": 5278, 
  "▁Abendkleid": 5279, 
  "▁ロールアップ": 5280, 
  "▁line": 5281, 
  "iro": 5282, 
  "▁Gen": 5283, 
  "▁Candid": 5284, 
  "▁ワッシャー": 5285, 
  "OURS": 5286, 
  "フーデッドコート": 5287, 
  "肩あき": 5288, 
  "▁Creppad": 5289, 
  "▁Stickereien": 5290, 
  "▁Flanell": 5291, 
  "ect": 5292, 
  "▁Po": 5293, 
  "▁ベルトツキ": 5294, 
  "▁Jkt": 5295, 
  "ダンボール": 5296, 
  "▁Adult": 5297, 
  "アンゴラ混": 5298, 
  "裝飾": 5299, 
  "ラッフルブラウス": 5300, 
  "▁Sou": 5301, 
  "フリルトップス": 5302, 
  "ニットジャケット": 5303, 
  "▁タートルネックニット": 5304, 
  "FS": 5305, 
  "▁Thunder": 5306, 
  "▁Crisp": 5307, 
  "▁肩開き": 5308, 
  "▁Metalic": 5309, 
  "▁Lite": 5310, 
  "ジャカードスカート": 5311, 
  "人": 5312, 
  "▁Lu": 5313, 
  "▁HUM": 5314, 
  "BEN": 5315, 
  "Boyfriend": 5316, 
  "▁Emilyan": 5317, 
  "▁WILD": 5318, 
  "布": 5319, 
  "異素材切替": 5320, 
  "シャギーチェック": 5321, 
  "lis": 5322, 
  "▁Force": 5323, 
  "日本藍": 5324, 
  "▁布帛": 5325, 
  "▁Blusenshirt": 5326, 
  "▁CLUB": 5327, 
  "▁Metal": 5328, 
  "▁カシミアタッチ": 5329, 
  "▁Mountain": 5330, 
  "レーストップス": 5331, 
  "42": 5332, 
  "トッパーカーデ": 5333, 
  "▁vest": 5334, 
  "▁STRAIGHT": 5335, 
  "ロー": 5336, 
  "▁星条旗": 5337, 
  "REX": 5338, 
  "earth": 5339, 
  "bra": 5340, 
  "▁タートルニット": 5341, 
  "▁Penn": 5342, 
  "▁クルーネックボーダー": 5343, 
  "▁Lake": 5344, 
  "Baumwolle": 5345, 
  "mischung": 5346, 
  "▁アネラリュクス": 5347, 
  "▁Pu": 5348, 
  "▁kimono": 5349, 
  "details": 5350, 
  "メロウ": 5351, 
  "▁WAIST": 5352, 
  "ケーブルセーター": 5353, 
  "▁ムジ": 5354, 
  "不可": 5355, 
  "深": 5356, 
  "▁fill": 5357, 
  "▁アゼ": 5358, 
  "▁リボンスリーブ": 5359, 
  "▁Pure": 5360, 
  "FL": 5361, 
  "リブ編み": 5362, 
  "▁Flag": 5363, 
  "▁サイドタック": 5364, 
  "▁Wi": 5365, 
  "▁リボンつき": 5366, 
  "リーズ": 5367, 
  "▁haupia": 5368, 
  "ノースリーブトップス": 5369, 
  "▁冬": 5370, 
  "▁ストライプ切り替え": 5371, 
  "イージーワイドパンツ": 5372, 
  "▁サイドボタン": 5373, 
  "pad": 5374, 
  "シャツワンピ": 5375, 
  "▁成人式": 5376, 
  "▁先染め": 5377, 
  "厚": 5378, 
  "▁FRINGE": 5379, 
  "▁レトロフラワー": 5380, 
  "ディ": 5381, 
  "▁RUCHE": 5382, 
  "ボートネックカットソー": 5383, 
  "LARGE": 5384, 
  "フラノ": 5385, 
  "9-1": 5386, 
  "▁リゾート": 5387, 
  "oni": 5388, 
  "▁Steppjacke": 5389, 
  "▁キルト": 5390, 
  "マーメイド": 5391, 
  "▁Py": 5392, 
  "▁Tiger": 5393, 
  "▁Sugar": 5394, 
  "ポンチテーラードジャケット": 5395, 
  "▁Strong": 5396, 
  "テーパードデニム": 5397, 
  "ザ": 5398, 
  "パフスリーブブラウス": 5399, 
  "▁サルエル": 5400, 
  "▁Figur": 5401, 
  "衿ブラウス": 5402, 
  "馬": 5403, 
  "レースキャミ": 5404, 
  "▁オープンカラー": 5405, 
  "▁Wickeloptik": 5406, 
  "撥水加工": 5407, 
  "35": 5408, 
  "メール便": 5409, 
  "刷破": 5410, 
  "丹寧": 5411, 
  "▁細": 5412, 
  "plus": 5413, 
  "▁ライダースジャケット": 5414, 
  "▁Paljett": 5415, 
  "ボリュームスカート": 5416, 
  "▁ひざ丈": 5417, 
  "▁トレンチ": 5418, 
  "Original": 5419, 
  "▁Dud": 5420, 
  "ポケ付": 5421, 
  "▁koronkowa": 5422, 
  "DUC": 5423, 
  "ランダム": 5424, 
  "フットボール": 5425, 
  "FAVORI": 5426, 
  "▁koronki": 5427, 
  "▁Roma": 5428, 
  "ワークシャツ": 5429, 
  "ya": 5430, 
  "▁ビンテージ": 5431, 
  "バルーン袖": 5432, 
  "タートルネックプルオーバー": 5433, 
  "ゆるニット": 5434, 
  "細": 5435, 
  "Color": 5436, 
  "▁NA": 5437, 
  "▁シルキー": 5438, 
  "▁コットン混": 5439, 
  "CK": 5440, 
  "tw": 5441, 
  "▁Dunkelrot": 5442, 
  "▁Bottle": 5443, 
  "TED": 5444, 
  "▁ワイドリブニット": 5445, 
  "▁Vinrod": 5446, 
  "レース切り替え": 5447, 
  "anzug": 5448, 
  "▁body": 5449, 
  "▁Skateboarding": 5450, 
  "▁Contemporary": 5451, 
  "▁Consulta": 5452, 
  "▁Cobalt": 5453, 
  "限時": 5454, 
  "002": 5455, 
  "▁Strukturmuster": 5456, 
  "▁h": 5457, 
  "▁Hulan": 5458, 
  "▁パウダー": 5459, 
  "▁BEACH": 5460, 
  "▁/>": 5461, 
  "シュ": 5462, 
  "▁bow": 5463, 
  "▁CAL": 5464, 
  "▁Pom": 5465, 
  "BBB": 5466, 
  "テレコタンクトップ": 5467, 
  "dem": 5468, 
  "lmut": 5469, 
  "▁brille": 5470, 
  "▁ミリタリージャケット": 5471, 
  "裾フリンジ": 5472, 
  "圖騰": 5473, 
  "▁裾タック": 5474, 
  "34": 5475, 
  "RG": 5476, 
  "▁拔洗藍": 5477, 
  "ワイドデニムパンツ": 5478, 
  "フラワープリントワンピース": 5479, 
  "▁Opa": 5480, 
  "▁MOHAIR": 5481, 
  "灣": 5482, 
  "▁Hell": 5483, 
  "無袖": 5484, 
  "ネックプリント": 5485, 
  "▁休閒": 5486, 
  "TRPU": 5487, 
  "印花短袖": 5488, 
  "ジャージジャケット": 5489, 
  "ドライ": 5490, 
  "ビー": 5491, 
  "▁trikaklanning": 5492, 
  "▁ラッフルフリル": 5493, 
  "ick": 5494, 
  "ドレープワンピース": 5495, 
  "▁ROLL": 5496, 
  "▁GOOD": 5497, 
  "▁タックテーパードパンツ": 5498, 
  "▁Type": 5499, 
  "▁DAISY": 5500, 
  "ymi": 5501, 
  "フラワー刺しゅう": 5502, 
  "均": 5503, 
  "▁Flowers": 5504, 
  "針織": 5505, 
  "▁MONO": 5506, 
  "▁リバティ": 5507, 
  "ストライプワイドパンツ": 5508, 
  "柄ワンピース": 5509, 
  "立體": 5510, 
  "▁60/2": 5511, 
  "▁プレミアム": 5512, 
  "NTJBK": 5513, 
  "点セット": 5514, 
  "▁サークル": 5515, 
  "▁war": 5516, 
  "ester": 5517, 
  "ボタンダウン": 5518, 
  "drobe": 5519, 
  "▁シンプルデザイン": 5520, 
  "wa": 5521, 
  "ベ": 5522, 
  "0°": 5523, 
  "ONE": 5524, 
  "▁Mauve": 5525, 
  "Slim": 5526, 
  "接結": 5527, 
  "▁State": 5528, 
  "▁ネルチェック": 5529, 
  "▁support": 5530, 
  "▁Adam": 5531, 
  "ウラキモウ": 5532, 
  "▁タイダイ": 5533, 
  "side": 5534, 
  "▁tunika": 5535, 
  "xl": 5536, 
  "▁Transparente": 5537, 
  "▁511&": 5538, 
  "タートルネックニットプルオーバー": 5539, 
  "スーピマ": 5540, 
  "▁Life": 5541, 
  "ゆったり": 5542, 
  "aa": 5543, 
  "rfum": 5544, 
  "▁Pt": 5545, 
  "裏ボア": 5546, 
  "▁ハイネックニット": 5547, 
  "Short": 5548, 
  "▁ファー付き": 5549, 
  "▁Lacing": 5550, 
  "Longbluse": 5551, 
  "▁コ": 5552, 
  "▁KF": 5553, 
  "▁ハーフ": 5554, 
  "スクエアネック": 5555, 
  "用": 5556, 
  "▁Bleach": 5557, 
  "▁Q": 5558, 
  "▁Szary": 5559, 
  "▁Chunky": 5560, 
  "▁belt": 5561, 
  "▁Rio": 5562, 
  "▁ダッフルコート": 5563, 
  "▁Just": 5564, 
  "サッシュ付": 5565, 
  "▁KC": 5566, 
  "27": 5567, 
  "▁サ": 5568, 
  "8-1": 5569, 
  "ラッセル": 5570, 
  "▁Jody": 5571, 
  "▁ベルベット": 5572, 
  "▁形態安定": 5573, 
  "レディ": 5574, 
  "trui": 5575, 
  "▁WALT": 5576, 
  "▁刺繍ブラウス": 5577, 
  "55": 5578, 
  "▁100%": 5579, 
  "▁TRPU": 5580, 
  "▁sp": 5581, 
  "▁SPORT": 5582, 
  "▁Travel": 5583, 
  "ティアードスカート": 5584, 
  "▁フレアースリーブ": 5585, 
  "my": 5586, 
  "▁ボトルネックニット": 5587, 
  "▁杢": 5588, 
  "畦編みニット": 5589, 
  "hiko": 5590, 
  "▁サッシュベルト付き": 5591, 
  "▁Simple": 5592, 
  "▁Eagle": 5593, 
  "▁フリンジデニム": 5594, 
  "▁ビーズ": 5595, 
  "▁オーガニック": 5596, 
  "プリントパーカー": 5597, 
  "裾フリル": 5598, 
  "uleme": 5599, 
  "ウォッシュド": 5600, 
  "タックプルオーバー": 5601, 
  "▁Deme": 5602, 
  "▁Trib": 5603, 
  "tter": 5604, 
  "ida": 5605, 
  "▁Coast": 5606, 
  "▁スプリングコート": 5607, 
  "▁ハンド": 5608, 
  "スプリングコート": 5609, 
  "▁KNITTE": 5610, 
  "OWA": 5611, 
  "ブーケ": 5612, 
  "着用": 5613, 
  "レースキャミソール": 5614, 
  "▁wieczorowa": 5615, 
  "▁rozci": 5616, 
  "窄管": 5617, 
  "▁フリルブラウス": 5618, 
  "▁トタンテレコ": 5619, 
  "ストリング": 5620, 
  "▁アルパカ": 5621, 
  "袖プルオーバー": 5622, 
  "字母印花": 5623, 
  "▁IT": 5624, 
  "▁COACH": 5625, 
  "LONG": 5626, 
  "▁AB": 5627, 
  "フレアミディスカート": 5628, 
  "▁snor": 5629, 
  "▁JEAN": 5630, 
  "▁ランダムテレコ": 5631, 
  "po": 5632, 
  "85": 5633, 
  "重": 5634, 
  "破壞": 5635, 
  "▁Ny": 5636, 
  "▁圧縮ウール": 5637, 
  "プルパーカ": 5638, 
  "天竺ボーダー": 5639, 
  "▁ka": 5640, 
  "フラッグ": 5641, 
  "▁透かし柄": 5642, 
  "▁Delux": 5643, 
  "ピタ": 5644, 
  "BALL": 5645, 
  "チェックタイトスカート": 5646, 
  "▁koronk": 5647, 
  "加厚": 5648, 
  "NSJ": 5649, 
  "〔": 5650, 
  "▁TROPICAL": 5651, 
  "▁ピケ": 5652, 
  "▁クラシック": 5653, 
  "▁Tickle": 5654, 
  "▁Chop": 5655, 
  "▁Gefutterte": 5656, 
  "▁FLEECE": 5657, 
  "え": 5658, 
  "黑": 5659, 
  "▁Clean": 5660, 
  "▁Pum": 5661, 
  "▁Donegal": 5662, 
  "nald": 5663, 
  "デザインパンツ": 5664, 
  "マン": 5665, 
  "▁Outdoorjacke": 5666, 
  "▁レギュラー": 5667, 
  "▁ICE": 5668, 
  "▁Oversizeshirt": 5669, 
  "カラフル": 5670, 
  "▁マドラスチェック": 5671, 
  "▁Connection": 5672, 
  "メロー": 5673, 
  "星": 5674, 
  "ons": 5675, 
  "ERFO": 5676, 
  "▁Bia": 5677, 
  "ADE": 5678, 
  "ジュエル": 5679, 
  "▁NEO": 5680, 
  "▁ノルディック": 5681, 
  "blau": 5682, 
  "▁OX": 5683, 
  "▁Graz": 5684, 
  "▁Bro": 5685, 
  "ツイードジャケット": 5686, 
  "▁Puff": 5687, 
  "▁Mouwen": 5688, 
  "▁Bone": 5689, 
  "onia": 5690, 
  "▁胸ポケット": 5691, 
  "▁Pasvorm": 5692, 
  "メッセージ": 5693, 
  "▁モコモコ": 5694, 
  "▁heart": 5695, 
  "淺藍": 5696, 
  "つ": 5697, 
  "チュニックブラウス": 5698, 
  "反摺": 5699, 
  "▁ミディ": 5700, 
  "華": 5701, 
  "ロゴニット": 5702, 
  "▁VADER": 5703, 
  "ナカワタ": 5704, 
  "ロングドレス": 5705, 
  "▁Geruit": 5706, 
  "▁War": 5707, 
  "▁オ": 5708, 
  "装飾": 5709, 
  "wer": 5710, 
  "て": 5711, 
  "フェミニン": 5712, 
  "▁リンクス": 5713, 
  "▁CB": 5714, 
  "▁ラメボーダー": 5715, 
  "サス付": 5716, 
  "chia": 5717, 
  "ソデフレア": 5718, 
  "▁NIC": 5719, 
  "▁綿ツイル": 5720, 
  "let": 5721, 
  "▁Port": 5722, 
  "ニットコート": 5723, 
  "スタンドカラーコート": 5724, 
  "WAYPO": 5725, 
  "+0118>": 5726, 
  "ストレッチデニムパンツ": 5727, 
  "▁Wave": 5728, 
  "▁Way": 5729, 
  "▁Satinblus": 5730, 
  "tail": 5731, 
  "▁Bug": 5732, 
  "weste": 5733, 
  "▁シャドー": 5734, 
  "▁きれいめ": 5735, 
  "HG": 5736, 
  "▁Urban": 5737, 
  "トロピカル": 5738, 
  "長袖ポロシャツ": 5739, 
  "ALE": 5740, 
  "Long": 5741, 
  "ov": 5742, 
  "joggers": 5743, 
  "▁patch": 5744, 
  "▁511": 5745, 
  "▁Supernova": 5746, 
  "▁Lining": 5747, 
  "▁テープヤーン": 5748, 
  "▁ガーゼ": 5749, 
  "▁Badg": 5750, 
  "▁「": 5751, 
  "muster": 5752, 
  "▁tank": 5753, 
  "▁WOOD": 5754, 
  "▁bordad": 5755, 
  "▁Valet": 5756, 
  "▁Vene": 5757, 
  "▁Matt": 5758, 
  "▁カーゴ": 5759, 
  "▁Bay": 5760, 
  "erman": 5761, 
  "レースコンビ": 5762, 
  "▁Fish": 5763, 
  "ドルマンシャツ": 5764, 
  "フレアニット": 5765, 
  "▁Colorblock": 5766, 
  "▁Putty": 5767, 
  "▁Baby": 5768, 
  "▁PREMIUM": 5769, 
  "モ": 5770, 
  "est": 5771, 
  "其": 5772, 
  "▁rose": 5773, 
  "zy": 5774, 
  "▁Serafin": 5775, 
  "▁Jeansjack": 5776, 
  "▁ケーブル柄": 5777, 
  "▁編み地切り替え": 5778, 
  "▁スーピマ": 5779, 
  "▁リネンライク": 5780, 
  "▁セーラー": 5781, 
  "裾タック": 5782, 
  "HA": 5783, 
  "▁Un": 5784, 
  "▁マタニティ": 5785, 
  "▁Per": 5786, 
  "▁ポイント": 5787, 
  "▁Bikerjack": 5788, 
  "Keith": 5789, 
  "ート": 5790, 
  "ラインコート": 5791, 
  "ギャザーフレアスカート": 5792, 
  "▁Fade": 5793, 
  "ラグランプルオーバー": 5794, 
  "▁50": 5795, 
  "ミッキー": 5796, 
  "▁ビスチェ": 5797, 
  "ボーダーカーディガン": 5798, 
  "▁デート": 5799, 
  "Done": 5800, 
  "▁Gathered": 5801, 
  "▁CrAap": 5802, 
  "▁Lines": 5803, 
  "ストレッチテーラードジャケット": 5804, 
  "ストレートデニム": 5805, 
  "ロック": 5806, 
  "▁SEQUIN": 5807, 
  "色塊": 5808, 
  "▁キュプラ": 5809, 
  "アーガイル": 5810, 
  "▁SUN": 5811, 
  "83": 5812, 
  "▁Flounced": 5813, 
  "▁Dawn": 5814, 
  "ger": 5815, 
  "スキッパーチュニック": 5816, 
  "▁フェイクウール": 5817, 
  "▁Stand": 5818, 
  "ロゴロン": 5819, 
  "美脚": 5820, 
  "▁Shine": 5821, 
  "星星": 5822, 
  "ラインリブ": 5823, 
  "comb": 5824, 
  "▁Titilate": 5825, 
  "布標": 5826, 
  "Men": 5827, 
  "▁Papell": 5828, 
  "oszulka": 5829, 
  "▁star": 5830, 
  "台形ミニスカート": 5831, 
  "▁CASUAL": 5832, 
  "oney": 5833, 
  "彈性": 5834, 
  "▁Breast": 5835, 
  "チェック柄シャツ": 5836, 
  "IPPO": 5837, 
  "ルーズニット": 5838, 
  "ヒ": 5839, 
  "▁Cherry": 5840, 
  "潮流嚴選滿版": 5841, 
  "kjack": 5842, 
  "▁Company": 5843, 
  "形": 5844, 
  "▁ワイドクロップドパンツ": 5845, 
  "街頭風格": 5846, 
  "▁COMFORT": 5847, 
  "▁Road": 5848, 
  "▁ブロードバンドカラー": 5849, 
  "▁お食事会": 5850, 
  "▁Schlitzen": 5851, 
  "ネックロング": 5852, 
  "mm": 5853, 
  "▁Baumwollshirt": 5854, 
  "▁leggings": 5855, 
  "▁detail": 5856, 
  "OFF": 5857, 
  "▁Etuikleid": 5858, 
  "身": 5859, 
  "▁Spetsklanning": 5860, 
  "▁Orchid": 5861, 
  "ウエスタンシャツ": 5862, 
  "HED": 5863, 
  "▁Faith": 5864, 
  "▁trench": 5865, 
  "▁snA": 5866, 
  "巻きスカート": 5867, 
  "▁ハニカム": 5868, 
  "▁Salsa": 5869, 
  "▁モード系": 5870, 
  "▁チェック柄シャツ": 5871, 
  "▁コットンシャツ": 5872, 
  "NC": 5873, 
  "retty": 5874, 
  "ors": 5875, 
  "▁ミドル": 5876, 
  "▁Elle": 5877, 
  "▁リネンレーヨン": 5878, 
  "▁dot": 5879, 
  "潮流外套": 5880, 
  "▁ふわふわ": 5881, 
  "ブラトップ": 5882, 
  "▁Mom": 5883, 
  "▁ZOO": 5884, 
  "▁fuksja": 5885, 
  "オン": 5886, 
  "DE": 5887, 
  "って": 5888, 
  "▁bodice": 5889, 
  "▁KT": 5890, 
  "▁SOL": 5891, 
  "ドット柄": 5892, 
  "▁Cuddl": 5893, 
  "jol": 5894, 
  "ダイ": 5895, 
  "▁CARDI": 5896, 
  "FUDGE": 5897, 
  "▁配色ライン": 5898, 
  "▁Lou": 5899, 
  "せ": 5900, 
  "EO": 5901, 
  "スパン": 5902, 
  "▁Or": 5903, 
  "▁Lorenz": 5904, 
  "▁ボーダーニットプルオーバー": 5905, 
  "▁Itali": 5906, 
  "チェックワイドパンツ": 5907, 
  "▁ドロップ": 5908, 
  "▁Grid": 5909, 
  "▁Korte": 5910, 
  "ディショナ": 5911, 
  "寬版": 5912, 
  "▁Sl": 5913, 
  "▁コード": 5914, 
  "▁FULL": 5915, 
  "▁大": 5916, 
  "れ": 5917, 
  "カジュアルシャツ": 5918, 
  "Dark": 5919, 
  "ショートブルゾン": 5920, 
  "▁酵洗藍": 5921, 
  "▁SEDITIONARIES": 5922, 
  "▁Camp": 5923, 
  "プリントスウェット": 5924, 
  "▁20/-": 5925, 
  "▁アンクルパンツ": 5926, 
  "▁Fabric": 5927, 
  "エンブロ": 5928, 
  "▁Mist": 5929, 
  "配色ニット": 5930, 
  "▁SHEER": 5931, 
  "▁You": 5932, 
  "▁Lyn": 5933, 
  "ダンガリーシャツ": 5934, 
  "総柄プリント": 5935, 
  "▁ニットワンピース": 5936, 
  "メンアサ": 5937, 
  "▁GINGHAM": 5938, 
  "▁レース付き": 5939, 
  "ぺプラム": 5940, 
  "▁デニム風": 5941, 
  "▁ドライ": 5942, 
  "ネック長袖カットソー": 5943, 
  "ワイドオールインワン": 5944, 
  "oile": 5945, 
  "▁シャドーボーダー": 5946, 
  "▁fr": 5947, 
  "ネックニットソー": 5948, 
  "▁Female": 5949, 
  "▁DR": 5950, 
  "▁Karo": 5951, 
  "rning": 5952, 
  "▁Pinafore": 5953, 
  "▁trika": 5954, 
  "▁花柄レース": 5955, 
  "▁フラワービジュー": 5956, 
  "71": 5957, 
  "フレアスリーブワンピース": 5958, 
  "▁お兄系": 5959, 
  "Dress": 5960, 
  "▁721": 5961, 
  "sleeve": 5962, 
  "▁SPRING": 5963, 
  "lamm": 5964, 
  "刺繍ニット": 5965, 
  "▁Extra": 5966, 
  "▁ベルトつき": 5967, 
  "モノトーン": 5968, 
  "cy": 5969, 
  "ポリ": 5970, 
  "▁フラワープリントワンピース": 5971, 
  "▁TRACK": 5972, 
  "ラー": 5973, 
  "▁Ruby": 5974, 
  "長袖ブラウス": 5975, 
  "Navy": 5976, 
  "▁3/4-": 5977, 
  "▁Sheen": 5978, 
  "▁asymetryczna": 5979, 
  "▁Taillierte": 5980, 
  "線條": 5981, 
  "▁swim": 5982, 
  "▁Tour": 5983, 
  "▁TRENCH": 5984, 
  "▁Corn": 5985, 
  "AUX": 5986, 
  "▁MO": 5987, 
  "▁SALE": 5988, 
  "▁TURTLE": 5989, 
  "▁contrast": 5990, 
  "▁03": 5991, 
  "ネックロングカーディガン": 5992, 
  "▁sammet": 5993, 
  "レーススリーブ": 5994, 
  "「": 5995, 
  "▁Kapp": 5996, 
  "▁タンク": 5997, 
  "▁お花": 5998, 
  "▁ボタンダウンシャツ": 5999, 
  "77": 6000, 
  "▁モチーフレース": 6001, 
  "▁Philosoph": 6002, 
  "▁Audrey": 6003, 
  "▁原藍磨": 6004, 
  "▁アン": 6005, 
  "鋪棉外套": 6006, 
  "▁Windbreaker": 6007, 
  "サークル": 6008, 
  "スタンドカラーシャツ": 6009, 
  "▁ハ": 6010, 
  "▁BI": 6011, 
  "+0144>": 6012, 
  "見せ": 6013, 
  "クルーネックニットプルオーバー": 6014, 
  "▁WEST": 6015, 
  "ドットチュール": 6016, 
  "皮衣外套": 6017, 
  "ング": 6018, 
  "リボンニット": 6019, 
  "▁シルエット": 6020, 
  "▁PR": 6021, 
  "▁Dirty": 6022, 
  "長袖上衣": 6023, 
  "▁CAR": 6024, 
  "▁AVI": 6025, 
  "糸": 6026, 
  "▁スーツ": 6027, 
  "グラフィック": 6028, 
  "▁Se": 6029, 
  "チェックプルオーバー": 6030, 
  "▁Choice": 6031, 
  "eersucker": 6032, 
  "▁metallic": 6033, 
  "ショップコート": 6034, 
  "+8869>": 6035, 
  "▁ギャバ": 6036, 
  "針織衫": 6037, 
  "ムートン": 6038, 
  "▁Coatigan": 6039, 
  "▁DAWN": 6040, 
  "▁Burn": 6041, 
  "rikatopp": 6042, 
  "▁Cali": 6043, 
  "▁motiv": 6044, 
  "総針": 6045, 
  "▁連帽": 6046, 
  "▁チノパン": 6047, 
  "450": 6048, 
  "版": 6049, 
  "リボンカットソー": 6050, 
  "▁JQD": 6051, 
  "ッチ": 6052, 
  "+015": 6053, 
  "フリルカットソー": 6054, 
  "▁トレーナー": 6055, 
  "▁wrap": 6056, 
  "Light": 6057, 
  "ネックニットカーディガン": 6058, 
  "▁フォトプリント": 6059, 
  "ダメージ加工": 6060, 
  "▁Fre": 6061, 
  "フロントボタン": 6062, 
  "シアサッカー": 6063, 
  "ボーダータンクトップ": 6064, 
  "▁BOW": 6065, 
  "▁Kragen": 6066, 
  "▁カラーネップ": 6067, 
  "ox": 6068, 
  "▁Rebecca": 6069, 
  "ロングチェスターコート": 6070, 
  "▁シャギーニット": 6071, 
  "カシュクールブラウス": 6072, 
  "▁Gammelrosa": 6073, 
  "▁Play": 6074, 
  "▁Seidenkleid": 6075, 
  "▁Fill": 6076, 
  "▁PONTE": 6077, 
  "▁とろみ": 6078, 
  "▁2015": 6079, 
  "▁コルセット": 6080, 
  "▁Hurricane": 6081, 
  "▁label": 6082, 
  "バスクシャツ": 6083, 
  "スウェットワンピース": 6084, 
  "▁LI": 6085, 
  "ri": 6086, 
  "▁Normale": 6087, 
  "vis": 6088, 
  "▁カシュクール風": 6089, 
  "▁Ausschnitt": 6090, 
  "tooth": 6091, 
  "▁Ribbon": 6092, 
  "▁スレンダー": 6093, 
  "tag": 6094, 
  "サルエル": 6095, 
  "▁グラフィック": 6096, 
  "▁blouson": 6097, 
  "アイレット": 6098, 
  "FIT": 6099, 
  "▁Onepiece": 6100, 
  "ニットガウン": 6101, 
  "管": 6102, 
  "tig": 6103, 
  "ドレープカットソー": 6104, 
  "allow": 6105, 
  "▁Crest": 6106, 
  "▁コンビ": 6107, 
  "▁スクエアレース": 6108, 
  "クルーネック長袖": 6109, 
  "okie": 6110, 
  "▁Suresho": 6111, 
  "▁スカーチョ": 6112, 
  "tal": 6113, 
  "ugim": 6114, 
  "▁ENNEA": 6115, 
  "▁co": 6116, 
  "▁Tencel": 6117, 
  "▁格子柄": 6118, 
  "▁パールビジュー": 6119, 
  "▁前開き": 6120, 
  "フラワーブラウス": 6121, 
  "OL": 6122, 
  "▁入学式": 6123, 
  "漸層": 6124, 
  "ショートニット": 6125, 
  "ケーブル編み": 6126, 
  "ストレッチクロップドパンツ": 6127, 
  "zzi": 6128, 
  "▁Ljusbl": 6129, 
  "▁ヨーク": 6130, 
  "▁Swirl": 6131, 
  "▁サッシュベルト付": 6132, 
  "▁FLUTE": 6133, 
  "TAKEO": 6134, 
  "▁花柄刺繍": 6135, 
  "藍色": 6136, 
  "ラウンドヘム": 6137, 
  "ギ": 6138, 
  "カシミヤ混": 6139, 
  "フレア袖ブラウス": 6140, 
  "▁フリース": 6141, 
  "CavariA": 6142, 
  "▁panel": 6143, 
  "▁RIBB": 6144, 
  "▁タックガウチョパンツ": 6145, 
  "バルキーニット": 6146, 
  "スカウチョ": 6147, 
  "▁SHELL": 6148, 
  "chka": 6149, 
  "kat": 6150, 
  "▁Kaga": 6151, 
  "▁Sk": 6152, 
  "▁コードレーン": 6153, 
  "▁Plung": 6154, 
  "ギャザースリーブ": 6155, 
  "▁スカラ": 6156, 
  "EMBELLIS": 6157, 
  "▁CH": 6158, 
  "タイ": 6159, 
  "ible": 6160, 
  "麻混": 6161, 
  "リバーシブルブルゾン": 6162, 
  "optik": 6163, 
  "▁Scalloped": 6164, 
  "▁BB": 6165, 
  "ズボン": 6166, 
  "▁Garden": 6167, 
  "▁タスラン": 6168, 
  "ツイルスカート": 6169, 
  "▁abnehmbare": 6170, 
  "yn": 6171, 
  "スムースカットソー": 6172, 
  "▁アムンゼン": 6173, 
  "38": 6174, 
  "羽絨外套": 6175, 
  "▁RO": 6176, 
  "▁doll": 6177, 
  "カシミヤ": 6178, 
  "紋": 6179, 
  "マーク": 6180, 
  "インディゴ染め": 6181, 
  "ニットコーディガン": 6182, 
  "▁クルースウェット": 6183, 
  "▁WAFFLE": 6184, 
  "透かし編み": 6185, 
  "illy": 6186, 
  "▁SON": 6187, 
  "▁Carmen": 6188, 
  "糖罐子": 6189, 
  "▁前ボタン": 6190, 
  "ネックボーダー": 6191, 
  "▁Natasha": 6192, 
  "▁バックスリット": 6193, 
  "ged": 6194, 
  "29": 6195, 
  "DY": 6196, 
  "niany": 6197, 
  "バックル": 6198, 
  "▁Ab": 6199, 
  "▁ストライプワイドパンツ": 6200, 
  "EFF": 6201, 
  "▁LOOK": 6202, 
  "▁Tull": 6203, 
  "52": 6204, 
  "DA": 6205, 
  "Barsto": 6206, 
  "▁Mat": 6207, 
  "▁Lavender": 6208, 
  "TEN": 6209, 
  "▁den": 6210, 
  "▁MAR": 6211, 
  "▁31": 6212, 
  "ovic": 6213, 
  "▁hem": 6214, 
  "▁Sim": 6215, 
  "+2013>": 6216, 
  "露肩": 6217, 
  "▁衿レース": 6218, 
  "▁スパン": 6219, 
  "lined": 6220, 
  "フーテッド": 6221, 
  "▁ブ": 6222, 
  "リボンベルト": 6223, 
  "タンクワンピース": 6224, 
  "Jersey": 6225, 
  "▁ノーカラーブルゾン": 6226, 
  "スタイル": 6227, 
  "OE": 6228, 
  "▁CrAape": 6229, 
  "▁Duffle": 6230, 
  "▁ロングドレス": 6231, 
  "プルオーバーパーカー": 6232, 
  "Red": 6233, 
  "nnex": 6234, 
  "▁ケープ": 6235, 
  "太ボーダー": 6236, 
  "ロゴ入り": 6237, 
  "96": 6238, 
  "DF": 6239, 
  "▁crew": 6240, 
  "mpression": 6241, 
  "ブライト": 6242, 
  "▁wz": 6243, 
  "▁異素材ドッキング": 6244, 
  "▁幾何柄": 6245, 
  "編み上げ": 6246, 
  "▁キーネック": 6247, 
  "カー": 6248, 
  "太": 6249, 
  "ローゲージニット": 6250, 
  "タッセル": 6251, 
  "ely": 6252, 
  "waist": 6253, 
  "ガール": 6254, 
  "▁RayAc": 6255, 
  "▁GO": 6256, 
  "ブロックチェック": 6257, 
  "▁light": 6258, 
  "Grey": 6259, 
  "刺繍トップス": 6260, 
  "▁ランダムリブ": 6261, 
  "円": 6262, 
  "mo": 6263, 
  "▁ド": 6264, 
  "製": 6265, 
  "▁BLUS": 6266, 
  "▁Jones": 6267, 
  "▁azul": 6268, 
  "▁ジップパーカー": 6269, 
  "▁pattern": 6270, 
  "▁Venet": 6271, 
  "▁上品": 6272, 
  "フード付きコート": 6273, 
  "▁迷彩柄": 6274, 
  "cent": 6275, 
  "キャミワンピ": 6276, 
  "スカラップレース": 6277, 
  "▁パール付": 6278, 
  "20】": 6279, 
  "cie": 6280, 
  "▁po": 6281, 
  "▁モールヤーン": 6282, 
  "▁SUMMER": 6283, 
  "▁Personal": 6284, 
  "▁Neil": 6285, 
  "▁NIGHT": 6286, 
  "▁True": 6287, 
  "▁Mag": 6288, 
  "バックプリント": 6289, 
  "color": 6290, 
  "▁polotr": 6291, 
  "▁SO": 6292, 
  "Baumwoll": 6293, 
  "花柄プリント": 6294, 
  "Sleeve": 6295, 
  "uths": 6296, 
  "za": 6297, 
  "▁non": 6298, 
  "▁立体": 6299, 
  "armeln": 6300, 
  "ジオメトリック": 6301, 
  "▁Brain": 6302, 
  "▁重ね": 6303, 
  "▁裏シャギー": 6304, 
  "プチ": 6305, 
  "▁ナンバリング": 6306, 
  "ent": 6307, 
  "幾何": 6308, 
  "チュールレース": 6309, 
  "▁Flounce": 6310, 
  "▁Iron": 6311, 
  "vd": 6312, 
  "▁Sate": 6313, 
  "TER": 6314, 
  "ミラノ": 6315, 
  "lac": 6316, 
  "▁Kaschmir": 6317, 
  "字母標語": 6318, 
  "ten": 6319, 
  "ベーシックシャツ": 6320, 
  "喪": 6321, 
  "フレアミニスカート": 6322, 
  "▁Michael": 6323, 
  "▁pile": 6324, 
  "▁Draperad": 6325, 
  "▁タックスリーブ": 6326, 
  "▁フロッキープリント": 6327, 
  "▁NY": 6328, 
  "▁Endura": 6329, 
  "▁overshirt": 6330, 
  "▁Qui": 6331, 
  "テン": 6332, 
  "刷白": 6333, 
  "▁Gecrinkelte": 6334, 
  "▁Kunstleder": 6335, 
  "ashmere": 6336, 
  "▁ダイヤ": 6337, 
  "▁Details": 6338, 
  "▁WR": 6339, 
  "ジョーゼットシャツ": 6340, 
  "ワイドボーダー": 6341, 
  "▁デニムフリンジ": 6342, 
  "denim": 6343, 
  "▁アンクル": 6344, 
  "▁EMB": 6345, 
  "フロントリボン": 6346, 
  "▁Seafo": 6347, 
  "▁kolor": 6348, 
  "▁タックプリーツ": 6349, 
  "エンボス": 6350, 
  "Mens": 6351, 
  "▁ワンタック": 6352, 
  "▁KIKUCHI": 6353, 
  "▁あったか": 6354, 
  "Neill": 6355, 
  "高領": 6356, 
  "01】": 6357, 
  "ラッフルスリーブ": 6358, 
  "▁連帽外套": 6359, 
  "Denim": 6360, 
  "ボーダースカート": 6361, 
  "風衣外套": 6362, 
  "ホールガーメント": 6363, 
  "ミニマル": 6364, 
  "kaw": 6365, 
  "▁TWIST": 6366, 
  "▁Isabel": 6367, 
  "samt": 6368, 
  "シャンタン": 6369, 
  "▁カットワーク刺繍": 6370, 
  "TTE": 6371, 
  "▁Pacific": 6372, 
  "▁Bras": 6373, 
  "even": 6374, 
  "フロントレース": 6375, 
  "▁BELTED": 6376, 
  "▁Flash": 6377, 
  "▁”": 6378, 
  "VISION": 6379, 
  "プリント半袖": 6380, 
  "▁灰": 6381, 
  "down": 6382, 
  "▁Girls": 6383, 
  "クラシック": 6384, 
  "▁Deko": 6385, 
  "▁Moon": 6386, 
  "休閒外套": 6387, 
  "夏": 6388, 
  "ブークレニット": 6389, 
  "パッチ": 6390, 
  "▁キャバ": 6391, 
  "ボーダートップス": 6392, 
  "▁Beat": 6393, 
  "Anders": 6394, 
  "▁Brand": 6395, 
  "checked": 6396, 
  "クレイジー": 6397, 
  "▁Eth": 6398, 
  "▁レンタル": 6399, 
  "迦": 6400, 
  "績": 6401, 
  "▁China": 6402, 
  "小花柄": 6403, 
  "す": 6404, 
  "irst": 6405, 
  "▁Swims": 6406, 
  "レーシー": 6407, 
  "▁GOLD": 6408, 
  "タックシャツ": 6409, 
  "▁TRIM": 6410, 
  "レインコート": 6411, 
  "▁Destroyed": 6412, 
  "▁raglan": 6413, 
  "ピーコート": 6414, 
  "miss": 6415, 
  "▁Fil": 6416, 
  "▁Herringbone": 6417, 
  ".6": 6418, 
  "ボーダーチュニック": 6419, 
  "クラシカル": 6420, 
  "パジャマ": 6421, 
  "バックボタン": 6422, 
  "sweat": 6423, 
  "azy": 6424, 
  "▁スカジャン": 6425, 
  "21】": 6426, 
  "▁コットンボイル": 6427, 
  "▁Pussy": 6428, 
  "ラペル": 6429, 
  "▁フランダースリネン": 6430, 
  "▁golfem": 6431, 
  "セットアップ対応": 6432, 
  "ej": 6433, 
  "コットンカットソー": 6434, 
  "ボックスロゴ": 6435, 
  "▁Marlenehose": 6436, 
  "Rock": 6437, 
  "ailored": 6438, 
  "tuck": 6439, 
  "iggle": 6440, 
  "▁バックゴム": 6441, 
  "フェイクウール": 6442, 
  "▁リバティプリント": 6443, 
  "ヌ": 6444, 
  "▁Bandana": 6445, 
  "▁スカラレース": 6446, 
  "code": 6447, 
  "ラム": 6448, 
  "マキシワンピ": 6449, 
  "63": 6450, 
  ".1": 6451, 
  "▁Olivia": 6452, 
  "ix": 6453, 
  "▁Field": 6454, 
  "▁パール付き": 6455, 
  "ッシュ": 6456, 
  "Leinen": 6457, 
  "bh": 6458, 
  "あき": 6459, 
  "アップリケ": 6460, 
  "バンドカラー": 6461, 
  "twill": 6462, 
  "▁Placket": 6463, 
  "》2": 6464, 
  "▁Jerseyhose": 6465, 
  "潮流嚴選雙色": 6466, 
  "▁Br": 6467, 
  "▁Romper": 6468, 
  "▁ウィンドウペンチェック": 6469, 
  "星柄": 6470, 
  "▁fl": 6471, 
  "▁Emily": 6472, 
  "▁Adi": 6473, 
  "ショートダウン": 6474, 
  "opover": 6475, 
  "26": 6476, 
  "BlA": 6477, 
  "柄ニット": 6478, 
  "yer": 6479, 
  "LY": 6480, 
  "▁blau": 6481, 
  "▁SLV": 6482, 
  "クロップドデニムパンツ": 6483, 
  "フラワーシシュウ": 6484, 
  "▁∞": 6485, 
  "wkowa": 6486, 
  "ウエストギャザー": 6487, 
  "アン": 6488, 
  "▁GARDEN": 6489, 
  "jin": 6490, 
  "シルク混": 6491, 
  "ファー付": 6492, 
  "18】": 6493, 
  "刷色": 6494, 
  "▁裾スカラップ": 6495, 
  "皮標": 6496, 
  "長袖ニット": 6497, 
  "▁サス付": 6498, 
  "▁チェスター": 6499, 
  "▁超商取貨": 6500, 
  "LR": 6501, 
  "半": 6502, 
  "BRIG": 6503, 
  "ski": 6504, 
  "▁Mel": 6505, 
  "53": 6506, 
  "sta": 6507, 
  "枚セット": 6508, 
  "+6735>": 6509, 
  "▁Ness": 6510, 
  "▁厚手": 6511, 
  "Graphic": 6512, 
  "▁hd": 6513, 
  "蕾絲衫": 6514, 
  "lo": 6515, 
  "▁ウエストベルト": 6516, 
  "▁Mira": 6517, 
  "スキニージーンズ": 6518, 
  "VKT": 6519, 
  "▁Thread": 6520, 
  "▁Bride": 6521, 
  "▁Beachshort": 6522, 
  "▁Yarn": 6523, 
  "ap": 6524, 
  "▁ピーチ起毛": 6525, 
  "ez": 6526, 
  "シャンブレーシャツ": 6527, 
  "▁エスニック柄": 6528, 
  "▁★*": 6529, 
  "Silver": 6530, 
  "ボタニカル柄": 6531, 
  "Soda": 6532, 
  "袖リボンブラウス": 6533, 
  "パー": 6534, 
  "▁吸水速乾": 6535, 
  "PJ": 6536, 
  "▁40/2": 6537, 
  "オルテガ柄": 6538, 
  "▁More": 6539, 
  "▁ボックス": 6540, 
  "強撚": 6541, 
  "▁Wald": 6542, 
  "▁pas": 6543, 
  "refo": 6544, 
  "▁ストレッチデニムパンツ": 6545, 
  "▁SEAM": 6546, 
  "▁シフォンプリーツ": 6547, 
  "▁ベル": 6548, 
  "▁22": 6549, 
  "▁BEN": 6550, 
  "カーディガンニット": 6551, 
  "▁Self": 6552, 
  "Kurzmantel": 6553, 
  "▁ベイカー": 6554, 
  "▁ストレッチパンツ": 6555, 
  "▁DU": 6556, 
  "zar": 6557, 
  "▁サスペンダー": 6558, 
  "▁Pistol": 6559, 
  "ツイルテーパードパンツ": 6560, 
  "ショーパン": 6561, 
  "enmuster": 6562, 
  "▁DAN": 6563, 
  "レースタンクトップ": 6564, 
  "59": 6565, 
  "▁plecach": 6566, 
  "▁Death": 6567, 
  "▁純棉": 6568, 
  "デニムシャツワンピース": 6569, 
  "▁PKT": 6570, 
  "▁Ed": 6571, 
  "69": 6572, 
  "フレンチスリーブニット": 6573, 
  "▁Fair": 6574, 
  "BI": 6575, 
  "フレアプルオーバー": 6576, 
  "ugar": 6577, 
  "ップ": 6578, 
  "▁Chemis": 6579, 
  "opp": 6580, 
  "ha": 6581, 
  "▁ケーブルニットプルオーバー": 6582, 
  "▁シフォンレイヤード": 6583, 
  "機能": 6584, 
  "VNPO": 6585, 
  "▁Eden": 6586, 
  "▁gia": 6587, 
  "條": 6588, 
  "カツラギ": 6589, 
  "11】": 6590, 
  "▁ガーター編み": 6591, 
  "▁スーパーストレッチ": 6592, 
  "Miss": 6593, 
  "結び": 6594, 
  "▁David": 6595, 
  "▁ライナー付き": 6596, 
  "110": 6597, 
  "ciami": 6598, 
  "カル": 6599, 
  "オックスフォードシャツ": 6600, 
  "▁ペイント": 6601, 
  "ummy": 6602, 
  "▁袖タック": 6603, 
  "▁Chiffonuberwurf": 6604, 
  "▁Ma": 6605, 
  "▁Baumwolltunika": 6606, 
  "▁Demi": 6607, 
  "フラワーレースプルオーバー": 6608, 
  "▁CHAMPION": 6609, 
  "▁ロ": 6610, 
  "スタッズ": 6611, 
  "バルキー": 6612, 
  "▁Concept": 6613, 
  "韓版寬鬆": 6614, 
  "▁ボヘミアン": 6615, 
  "gree": 6616, 
  "cardigan": 6617, 
  "▁圧縮": 6618, 
  "ガーリー": 6619, 
  "デニムスキニー": 6620, 
  "ブッチャー": 6621, 
  "ham": 6622, 
  "Ballonkleid": 6623, 
  "ツイルパンツ": 6624, 
  "xe": 6625, 
  "キャミサロペット": 6626, 
  "▁接結": 6627, 
  "▁Bacconi": 6628, 
  "ハーフジップ": 6629, 
  "ポケットパンツ": 6630, 
  "▁Clima": 6631, 
  "ワイドデニム": 6632, 
  "▁20/": 6633, 
  "▁TEXTURE": 6634, 
  "ノーカラーシャツ": 6635, 
  "ドレープブラウス": 6636, 
  "ired": 6637, 
  "▁コーチジャケット": 6638, 
  "▁ライトデニム": 6639, 
  "LIGHT": 6640, 
  "潮流嚴選素色": 6641, 
  "llusion": 6642, 
  "Gentlem": 6643, 
  "▁チャイナ": 6644, 
  "▁ラップスカート": 6645, 
  "迷彩柄": 6646, 
  "ベア天竺": 6647, 
  "ドロップショルダープルオーバー": 6648, 
  "▁スカル": 6649, 
  "▁Hawaii": 6650, 
  "fort": 6651, 
  "ペイズリー柄": 6652, 
  "千鳥柄": 6653, 
  "▁フロントフリル": 6654, 
  "blue": 6655, 
  "▁Cycle": 6656, 
  "▁Trunk": 6657, 
  "ポプリン": 6658, 
  "チュール刺繍": 6659, 
  "本": 6660, 
  "パフ袖": 6661, 
  "▁レディ": 6662, 
  ">“": 6663, 
  "バッククロス": 6664, 
  "THE": 6665, 
  "▁nadrukiem": 6666, 
  "imento": 6667, 
  "▁ドットプリント": 6668, 
  "GO": 6669, 
  "▁スラックス": 6670, 
  "▁BOYS": 6671, 
  "▁Fire": 6672, 
  "▁ペ": 6673, 
  "▁比翼": 6674, 
  "スウェットパーカー": 6675, 
  "700": 6676, 
  "▁中古藍": 6677, 
  "▁Ruffles": 6678, 
  "boa": 6679, 
  "ロングタンクトップ": 6680, 
  "チェック柄スカート": 6681, 
  "CONE": 6682, 
  "▁Eller": 6683, 
  "ビジュ": 6684, 
  "▁Zig": 6685, 
  "ffic": 6686, 
  "ネイティブ": 6687, 
  "tra": 6688, 
  "▁pa": 6689, 
  "▁Ch": 6690, 
  "86": 6691, 
  "ストレートデニムパンツ": 6692, 
  "シー": 6693, 
  "AGE": 6694, 
  "ロングトッパー": 6695, 
  "▁タイトフィット": 6696, 
  "▁Copen": 6697, 
  "lia": 6698, 
  "カットジャケット": 6699, 
  "▁千鳥柄": 6700, 
  "シーム": 6701, 
  "▁Tulle": 6702, 
  "▁ゴブラン": 6703, 
  "ggy": 6704, 
  "▁HI": 6705, 
  "bstraction": 6706, 
  "ORK": 6707, 
  "coat": 6708, 
  "▁発表会": 6709, 
  "▁レースキャミソール": 6710, 
  "チェックシャツワンピース": 6711, 
  "▁czarne": 6712, 
  "▁PEPLUM": 6713, 
  "▁リング": 6714, 
  "抜き衿": 6715, 
  "▁Skin": 6716, 
  "フリル袖": 6717, 
  "▁太ボーダー": 6718, 
  "enza": 6719, 
  "▁抜き衿": 6720, 
  "ロングプルオーバー": 6721, 
  "ネジリ": 6722, 
  "▁Sailor": 6723, 
  "ausschnitt": 6724, 
  "edge": 6725, 
  "▁karmienia": 6726, 
  "クルーネックスウェット": 6727, 
  "▁Trika": 6728, 
  "▁KNOT": 6729, 
  "▁フレアスリーブブラウス": 6730, 
  "クロ": 6731, 
  "西裝外套": 6732, 
  "ola": 6733, 
  "レックス": 6734, 
  "▁Dri": 6735, 
  "ウールチェスターコート": 6736, 
  "ニットアンサンブル": 6737, 
  "▁Veloursleder": 6738, 
  "メルトンチェスターコート": 6739, 
  "▁Nature": 6740, 
  "NSK": 6741, 
  "Nirv": 6742, 
  "nings": 6743, 
  "oose": 6744, 
  "▁Pois": 6745, 
  "鏤空": 6746, 
  "バイカラーニット": 6747, 
  "分袖ワンピース": 6748, 
  "▁NC": 6749, 
  "SI": 6750, 
  "▁khakigr": 6751, 
  "フレンチスリーブブラウス": 6752, 
  "▁jkt": 6753, 
  "▁Jane": 6754, 
  "プリントパーカ": 6755, 
  "タックスリーブ": 6756, 
  "パール付": 6757, 
  "-1960": 6758, 
  "▁テ": 6759, 
  "▁レ": 6760, 
  "文藝": 6761, 
  "▁ロイヤル": 6762, 
  "▁Wetsuit": 6763, 
  "▁Weites": 6764, 
  "▁重ね着": 6765, 
  "▁Mar": 6766, 
  "▁コーディガン": 6767, 
  "ball": 6768, 
  "テレコカットソー": 6769, 
  "89": 6770, 
  "リア": 6771, 
  "▁TAPERED": 6772, 
  "▁House": 6773, 
  "▁レースレイヤード": 6774, 
  "フラワー柄": 6775, 
  "見え": 6776, 
  "リブニットワンピース": 6777, 
  "Blocking": 6778, 
  "▁DA": 6779, 
  "わ": 6780, 
  "▁ギンガムチェックシャツ": 6781, 
  "後ろ": 6782, 
  "▁レースワンピース": 6783, 
  "▁ハイテンション": 6784, 
  "▁Helene": 6785, 
  "▁PEANUTS": 6786, 
  "▁Bado": 6787, 
  "ウェイ": 6788, 
  "▁スウェットパンツ": 6789, 
  "nternational": 6790, 
  "▁ef": 6791, 
  "透氣": 6792, 
  "塗": 6793, 
  "arhart": 6794, 
  "▁フリンジヘム": 6795, 
  "our": 6796, 
  "フロッキープリント": 6797, 
  "Lite": 6798, 
  "▁Homme": 6799, 
  "頭": 6800, 
  "▁Noir": 6801, 
  "ッド": 6802, 
  "12】": 6803, 
  "▁Magenta": 6804, 
  "▁oops": 6805, 
  "nr": 6806, 
  "▁メ": 6807, 
  "ドットブラウス": 6808, 
  "▁Authentic": 6809, 
  "▁ビックシルエット": 6810, 
  "BASIC": 6811, 
  "ノースリトップス": 6812, 
  "ボアブルゾン": 6813, 
  "▁OCEAN": 6814, 
  ")『": 6815, 
  "▁キ": 6816, 
  "ドロストパンツ": 6817, 
  "チェックフレアスカート": 6818, 
  "ste": 6819, 
  "▁LEE": 6820, 
  "▁gef": 6821, 
  "ストレッチシャツ": 6822, 
  "▁スソ": 6823, 
  "▁エンブロ": 6824, 
  "ボトル": 6825, 
  "▁kariert": 6826, 
  "ボリュームスリーブニット": 6827, 
  "カバー": 6828, 
  "▁英国": 6829, 
  "ボーダープリント": 6830, 
  "▁リバーシブルブルゾン": 6831, 
  "front": 6832, 
  "▁二重織": 6833, 
  "▁SUIT": 6834, 
  "パフスリーブニット": 6835, 
  "▁リメイク風": 6836, 
  "スプリング": 6837, 
  "owym": 6838, 
  "▁ラムウール": 6839, 
  "▁Simone": 6840, 
  "ロングパーカー": 6841, 
  "▁Rave": 6842, 
  "▁オフショルニット": 6843, 
  ".2": 6844, 
  "003": 6845, 
  "▁Grass": 6846, 
  "バイカラーワンピース": 6847, 
  "▁Minimum": 6848, 
  "タータンチェック": 6849, 
  "▁~": 6850, 
  "▁RIDERS": 6851, 
  "▁ワッペン": 6852, 
  "▁chiffong": 6853, 
  "フレアロングスカート": 6854, 
  "▁miss": 6855, 
  "▁JET": 6856, 
  "サージ": 6857, 
  "▁フィッシュテール": 6858, 
  "▁デニムスカート": 6859, 
  "itch": 6860, 
  "▁Des": 6861, 
  "ive": 6862, 
  "定番": 6863, 
  "Marlenehose": 6864, 
  "ワイドプルオーバー": 6865, 
  "▁ベイカーパンツ": 6866, 
  "▁Ripple": 6867, 
  "evan": 6868, 
  "▁Brusttasche": 6869, 
  "UST": 6870, 
  "▁BRA": 6871, 
  "ネックポケット": 6872, 
  "lA": 6873, 
  "▁SQUARE": 6874, 
  "▁TIGHT": 6875, 
  "レースアッププルオーバー": 6876, 
  "▁Step": 6877, 
  "▁Cha": 6878, 
  "▁ギャザースカート": 6879, 
  "ダンプ": 6880, 
  "zana": 6881, 
  "牛仔襯衫": 6882, 
  "ワイドクロップド": 6883, 
  "▁Train": 6884, 
  "blA": 6885, 
  "レースニット": 6886, 
  "▁Spodni": 6887, 
  "▁CN": 6888, 
  "▁Via": 6889, 
  "▁down": 6890, 
  "区": 6891, 
  "24": 6892, 
  "▁Lawrence": 6893, 
  "az": 6894, 
  "▁ヒョウ柄": 6895, 
  "切り替えシャツ": 6896, 
  "タックガウチョパンツ": 6897, 
  "マキシ丈": 6898, 
  "▁Cupro": 6899, 
  "▁anap": 6900, 
  "▁抗ピリング加工カシミアタッチ": 6901, 
  "ula": 6902, 
  "par": 6903, 
  "スリー": 6904, 
  "SE": 6905, 
  "▁針抜き": 6906, 
  "bolero": 6907, 
  "ボーダーニットカーディガン": 6908, 
  "▁MONDAY": 6909, 
  "▁Glaci": 6910, 
  "▁Flat": 6911, 
  "▁ショルダーリボン": 6912, 
  "▁Oa": 6913, 
  "破洞": 6914, 
  "ksand": 6915, 
  "▁Osi": 6916, 
  "▁Lia": 6917, 
  "春": 6918, 
  "ワッフルプルオーバー": 6919, 
  "涼感": 6920, 
  "▁エスパンディ": 6921, 
  "Stretch": 6922, 
  "rkis": 6923, 
  "rtel": 6924, 
  "JC": 6925, 
  "▁Halterneck": 6926, 
  "▁ウォッシャブルソフトタッチ": 6927, 
  "▁RELIEF": 6928, 
  "▁Simon": 6929, 
  "Blau": 6930, 
  "潮流嚴選韓版休閒": 6931, 
  "▁タックギャザー": 6932, 
  "hot": 6933, 
  "stone": 6934, 
  "ナンバー": 6935, 
  "韓": 6936, 
  "ouret": 6937, 
  "▁Holiday": 6938, 
  "襟付き": 6939, 
  "加絨": 6940, 
  "▁Frame": 6941, 
  "立体": 6942, 
  "織り": 6943, 
  "▁オフィス": 6944, 
  "ツカイ": 6945, 
  "▁mimpi": 6946, 
  "▁ジャガードニット": 6947, 
  "タートルニットプルオーバー": 6948, 
  "▁ワンポイント": 6949, 
  "山": 6950, 
  "▁Rip": 6951, 
  "麻花": 6952, 
  "▁Dou": 6953, 
  "▁REMI": 6954, 
  "吸水速乾": 6955, 
  "DRESS": 6956, 
  "▁Odyssey": 6957, 
  "▁NP": 6958, 
  "▁halter": 6959, 
  "BVC": 6960, 
  "ラメツイード": 6961, 
  "beige": 6962, 
  "▁ウエストシャーリング": 6963, 
  "▁フェミニン": 6964, 
  "▁FRUIT": 6965, 
  "▁CULOTTES": 6966, 
  "▁ポリ": 6967, 
  "丈青": 6968, 
  "ドットシャツ": 6969, 
  "フードコーディガン": 6970, 
  "切替デザイン": 6971, 
  "▁Courtes": 6972, 
  "ass": 6973, 
  "▁Gr": 6974, 
  "soul": 6975, 
  "鬆緊": 6976, 
  "タイプライターシャツ": 6977, 
  "▁Kabel": 6978, 
  "クールマックス": 6979, 
  "▁roll": 6980, 
  "▁COMBI": 6981, 
  "▁Layering": 6982, 
  "▁ミ": 6983, 
  "▁SST": 6984, 
  "▁リングベルト": 6985, 
  "▁SUK": 6986, 
  "コンパクトニット": 6987, 
  "NTJBT": 6988, 
  "▁LEOPARD": 6989, 
  "§": 6990, 
  "大尺碼": 6991, 
  "ゲ": 6992, 
  "▁tapered": 6993, 
  "碎花": 6994, 
  "▁ベ": 6995, 
  "▁Tune": 6996, 
  "if": 6997, 
  "加絨加厚": 6998, 
  "▁ボトルネックプルオーバー": 6999, 
  "JZ": 7000, 
  "▁SEA": 7001, 
  "▁Bagg": 7002, 
  "ネック半袖プルオーバー": 7003, 
  "リップ": 7004, 
  "▁Wrapover": 7005, 
  "▁NYC": 7006, 
  "head": 7007, 
  "日潮": 7008, 
  "▁透け": 7009, 
  "▁Punkten": 7010, 
  "▁肩あき": 7011, 
  "タックコクーン": 7012, 
  "▁バイアス": 7013, 
  "▁太": 7014, 
  "アルパカ混": 7015, 
  "クレープ": 7016, 
  "▁moi": 7017, 
  "Leggings": 7018, 
  "▁ロングトレンチコート": 7019, 
  "ツイ": 7020, 
  "▁Florence": 7021, 
  "ジャカードニット": 7022, 
  "シフォンガウン": 7023, 
  "▁リバー": 7024, 
  "▁ビンテージサテン": 7025, 
  "▁Coache": 7026, 
  "ウェザー": 7027, 
  "ロングカットソー": 7028, 
  "▁裾リボン": 7029, 
  "▁Bomb": 7030, 
  "チュニックシャツ": 7031, 
  "ロングトレンチコート": 7032, 
  "フェイクスウェード": 7033, 
  "ジップアップパーカ": 7034, 
  "▁クルーネックプルオーバー": 7035, 
  "▁rozkloszowana": 7036, 
  "ひざ丈": 7037, 
  "柄スカート": 7038, 
  "ィ": 7039, 
  "▁ハシゴレース": 7040, 
  "▁ブッチャー": 7041, 
  "ジョガー": 7042, 
  "ミディー": 7043, 
  "▁半袖プリント": 7044, 
  "▁1/4": 7045, 
  "▁マルチカラー": 7046, 
  "異素材切り替え": 7047, 
  "▁裏": 7048, 
  "▁Seidenmix": 7049, 
  "▁スポーツ": 7050, 
  "▁BELT": 7051, 
  "▁ワイドデニムパンツ": 7052, 
  "stof": 7053, 
  "OO": 7054, 
  "▁SergAc": 7055, 
  "▁asymmetrische": 7056, 
  "▁Lambswool": 7057, 
  "夾克外套": 7058, 
  "ever": 7059, 
  "den": 7060, 
  "Zag": 7061, 
  "トーン": 7062, 
  "▁ビエラ": 7063, 
  "▁tie": 7064, 
  "ue": 7065, 
  "RNING": 7066, 
  "▁Fee": 7067, 
  "トリミング": 7068, 
  "オフショルダートップス": 7069, 
  "▁TAPE": 7070, 
  "▁ボ": 7071, 
  "POLKA": 7072, 
  "ギンガムチェックシャツ": 7073, 
  "▁Sleep": 7074, 
  "▁arm": 7075, 
  "▁ダウンベスト": 7076, 
  "id": 7077, 
  "▁春物": 7078, 
  "▁REVERSIBLE": 7079, 
  "ata": 7080, 
  "▁Wms": 7081, 
  "ケット": 7082, 
  "長袖プルパーカー": 7083, 
  "▁長袖シャツ": 7084, 
  "▁MON": 7085, 
  "ライン入り": 7086, 
  "field": 7087, 
  "▁Bedruckte": 7088, 
  "ivan": 7089, 
  "ニットブルゾン": 7090, 
  "シェ": 7091, 
  "▁TIME": 7092, 
  "▁パフ": 7093, 
  "インターシャニット": 7094, 
  "カットチュニック": 7095, 
  "▁Nacht": 7096, 
  "▁Zeal": 7097, 
  "555": 7098, 
  "▁Soph": 7099, 
  "▁トッパーカーディガン": 7100, 
  "▁ガラ": 7101, 
  "タックデザイン": 7102, 
  "▁襟": 7103, 
  "ロゴプリントパーカ": 7104, 
  "ローゲージ": 7105, 
  "▁Stevi": 7106, 
  "カッティング": 7107, 
  "▁low": 7108, 
  "吊帶": 7109, 
  "▁STO": 7110, 
  "07】": 7111, 
  "pa": 7112, 
  "トロミ": 7113, 
  "BR": 7114, 
  "▁SPARKLE": 7115, 
  "六色": 7116, 
  "▁大人カジュアル": 7117, 
  "ブレザー": 7118, 
  "レギュラーカラーシャツ": 7119, 
  "lourslederimitat": 7120, 
  "▁印花": 7121, 
  "防止": 7122, 
  "▁基本": 7123, 
  "▁CAT": 7124, 
  "▁袖ライン": 7125, 
  "▁サルエルパンツ": 7126, 
  "イラスト": 7127, 
  "ERS": 7128, 
  "▁Steel": 7129, 
  "▁Mitch": 7130, 
  "▁Knitter": 7131, 
  "▁Ethno": 7132, 
  "80": 7133, 
  "リバティ": 7134, 
  "ray": 7135, 
  "▁Socks": 7136, 
  "RON": 7137, 
  "tree": 7138, 
  "ull": 7139, 
  "▁Zimmer": 7140, 
  "▁ウィンドウペン": 7141, 
  "街頭": 7142, 
  "▁WE": 7143, 
  "Oversizeshirt": 7144, 
  "ント": 7145, 
  "ドルマンスリーブ": 7146, 
  "▁LUV": 7147, 
  "▁Slouch": 7148, 
  "▁Od": 7149, 
  "▁Cl": 7150, 
  "▁サーキュラー": 7151, 
  "arrett": 7152, 
  "▁Xl": 7153, 
  "ショートスリーブシャツ": 7154, 
  "▁シフォン切替": 7155, 
  "lar": 7156, 
  "▁basic": 7157, 
  "防風": 7158, 
  "▁Pelle": 7159, 
  "▁ポ": 7160, 
  "▁dzianinowa": 7161, 
  "▁ネコ": 7162, 
  "▁PATCH": 7163, 
  "▁インディゴ染め": 7164, 
  "WOOL": 7165, 
  "▁Overalls": 7166, 
  "asc": 7167, 
  "▁Latte": 7168, 
  "inko": 7169, 
  "▁MICKEY": 7170, 
  "ペプラムカットソー": 7171, 
  "▁4.5": 7172, 
  "▁Break": 7173, 
  "ness": 7174, 
  "▁アンサンブル": 7175, 
  "▁Convert": 7176, 
  "▁Marineblau": 7177, 
  "GYMPHLEX": 7178, 
  "▁Zipfelsaum": 7179, 
  "▁single": 7180, 
  "▁フリルカラー": 7181, 
  "▁Originals": 7182, 
  "ドッキングワンピ": 7183, 
  "▁ミモレ": 7184, 
  "プレミアム": 7185, 
  "▁Hank": 7186, 
  "▁ozdobnym": 7187, 
  "▁裏プリント": 7188, 
  "大人": 7189, 
  "ディー": 7190, 
  "▁Pi": 7191, 
  "▁Lambs": 7192, 
  "OS": 7193, 
  "▁Slits": 7194, 
  "新": 7195, 
  "cz": 7196, 
  "分袖カーディガン": 7197, 
  "▁AN": 7198, 
  "▁loose": 7199, 
  "▁Luna": 7200, 
  "111": 7201, 
  "▁箔プリント": 7202, 
  "Silberfarben": 7203, 
  "〉": 7204, 
  "IT": 7205, 
  "球": 7206, 
  "オフショルダーニット": 7207, 
  "ノースリカットソー": 7208, 
  "▁ライトオンスデニム": 7209, 
  "▁レースプルオーバー": 7210, 
  "▁ファンシー": 7211, 
  "▁Pebble": 7212, 
  "▁フェイクレザーライダース": 7213, 
  "499": 7214, 
  "花柄ブラウス": 7215, 
  "▁ワッフルロング": 7216, 
  "マルチボーダーニット": 7217, 
  "▁スリットスリーブ": 7218, 
  "▁モダール": 7219, 
  "▁ブリーチ": 7220, 
  "▁レース刺繍": 7221, 
  "▁COLD": 7222, 
  "ik": 7223, 
  "ローブ": 7224, 
  "カシュ": 7225, 
  "fa": 7226, 
  "スカシ": 7227, 
  "}{1": 7228, 
  "▁Fliesende": 7229, 
  "小花": 7230, 
  "▁フリンジ付": 7231, 
  "▁ヨウリュウ": 7232, 
  "▁Vi": 7233, 
  "▁披露宴": 7234, 
  "▁DRY": 7235, 
  "▁Detach": 7236, 
  "ディティール": 7237, 
  "套頭": 7238, 
  "▁LADY": 7239, 
  "Leg": 7240, 
  "▁フラワーレース切り替え": 7241, 
  "▁CROP": 7242, 
  "フリルスカート": 7243, 
  "▁Lopar": 7244, 
  "▁Smoke": 7245, 
  "etti": 7246, 
  "▁MUVEIL": 7247, 
  "ice": 7248, 
  "87": 7249, 
  "▁Sporty": 7250, 
  "レース付": 7251, 
  "LST": 7252, 
  "▁サッカー": 7253, 
  "▁モチーフ": 7254, 
  "シア": 7255, 
  "リバ": 7256, 
  "ピンタックブラウス": 7257, 
  "▁Kiss": 7258, 
  "DMW": 7259, 
  "▁ダウンジャケット": 7260, 
  "ネス": 7261, 
  "袖ファー": 7262, 
  "ジュ": 7263, 
  "▁Jerseytunika": 7264, 
  "istressed": 7265, 
  "▁Schou": 7266, 
  "サイドジップ": 7267, 
  "▁ribbon": 7268, 
  "▁SOLID": 7269, 
  "タックガウチョ": 7270, 
  "style": 7271, 
  "フレイドヘム": 7272, 
  "Marshmallow": 7273, 
  "ondo": 7274, 
  "▁微起毛": 7275, 
  "▁Beauty": 7276, 
  "▁ティアードスリーブ": 7277, 
  "製品染め": 7278, 
  "ツィードジャケット": 7279, 
  "ミニワンピース": 7280, 
  "▁GLITTER": 7281, 
  "HW": 7282, 
  "▁Powel": 7283, 
  "▁TIMEL": 7284, 
  "素材の": 7285, 
  "▁Knopfleiste": 7286, 
  "ラインプルオーバー": 7287, 
  "棉質短": 7288, 
  "blazer": 7289, 
  "immed": 7290, 
  "▁Gym": 7291, 
  "sch": 7292, 
  "▁ボーダーワンピース": 7293, 
  "ANA": 7294, 
  "▁サージ": 7295, 
  "▁knock": 7296, 
  "下殺": 7297, 
  "オフショルダープルオーバー": 7298, 
  "背": 7299, 
  "紐": 7300, 
  "▁〈": 7301, 
  "lu": 7302, 
  "あ": 7303, 
  "KI": 7304, 
  "スリットニット": 7305, 
  "LEATHER": 7306, 
  "▁Rune": 7307, 
  "ren": 7308, 
  "▁Pre": 7309, 
  "ネルチェック": 7310, 
  "刺繍スウェット": 7311, 
  "▁バイヤス": 7312, 
  "▁Ko": 7313, 
  "▁Kane": 7314, 
  "▁オックスフォード": 7315, 
  "鴉": 7316, 
  "▁Tonal": 7317, 
  "▁Charles": 7318, 
  "▁Elite": 7319, 
  "▁ウエストフリル": 7320, 
  "▁Trompetenarmeln": 7321, 
  "ムラ": 7322, 
  "サイドプリーツ": 7323, 
  "▁ベアトップ": 7324, 
  "▁アンティーク": 7325, 
  "▁side": 7326, 
  "▁スタジャン": 7327, 
  "sept": 7328, 
  "▁衿付": 7329, 
  "LI": 7330, 
  "だ": 7331, 
  "ルーズシャツ": 7332, 
  "saum": 7333, 
  "度": 7334, 
  "▁Bengalin": 7335, 
  "▁セ": 7336, 
  "星条旗": 7337, 
  "▁KHAKI": 7338, 
  "▁Laura": 7339, 
  "文字": 7340, 
  "▁キラキラ": 7341, 
  "▁リボンベルト付き": 7342, 
  "プチハイ": 7343, 
  "▁ストレッチスキニーパンツ": 7344, 
  "gem": 7345, 
  "▁KnA": 7346, 
  "▁Omlott": 7347, 
  "▁SHAGGY": 7348, 
  "▁Microfib": 7349, 
  "▁サイドジップ": 7350, 
  "▁ma": 7351, 
  "▁Chocolate": 7352, 
  "デザインカーディガン": 7353, 
  "▁Krinklad": 7354, 
  "鋪棉": 7355, 
  "チドリ": 7356, 
  "▁tanktop": 7357, 
  "カバーリング": 7358, 
  "▁前身レース": 7359, 
  "徽章": 7360, 
  "テーパードデニムパンツ": 7361, 
  "薄款": 7362, 
  "blo": 7363, 
  "ファ": 7364, 
  "oyfriend": 7365, 
  "▁Bad": 7366, 
  "直條紋": 7367, 
  "tis": 7368, 
  "▁button": 7369, 
  "花色": 7370, 
  "▁QUILT": 7371, 
  "▁ニュアンス": 7372, 
  "デニムサロペット": 7373, 
  "ラインパンツ": 7374, 
  "LEE": 7375, 
  "▁SHORE": 7376, 
  "23】": 7377, 
  "▁Moto": 7378, 
  "▁異素材使い": 7379, 
  "丸首": 7380, 
  "ネックドルマン": 7381, 
  "▁MS": 7382, 
  "▁Trikaklanning": 7383, 
  "hals": 7384, 
  "▁Lyocellmix": 7385, 
  "ENGLAND": 7386, 
  "▁ホ": 7387, 
  "▁niebieska": 7388, 
  "▁Offwhite": 7389, 
  "クループルオーバー": 7390, 
  "▁オータム": 7391, 
  "▁毛混": 7392, 
  "▁Pikee": 7393, 
  "バイアス": 7394, 
  "rui": 7395, 
  "ボーダーポロシャツ": 7396, 
  "や": 7397, 
  "39】": 7398, 
  "切り替えブラウス": 7399, 
  "check": 7400, 
  "▁フローラル": 7401, 
  "▁寬版": 7402, 
  "▁カモフラージュ": 7403, 
  "▁Keper": 7404, 
  "裏地": 7405, 
  "▁Sw": 7406, 
  "▁Rolling": 7407, 
  "▁Eva": 7408, 
  "リボンスカート": 7409, 
  "パーツ": 7410, 
  "▁Krepp": 7411, 
  "ショートカーデ": 7412, 
  "短裙": 7413, 
  "les": 7414, 
  "▁Strukturstoff": 7415, 
  "ストライプジャケット": 7416, 
  "英倫": 7417, 
  "▁Jacqu": 7418, 
  "Blazer": 7419, 
  "▁patchwork": 7420, 
  "▁Og": 7421, 
  "▁checked": 7422, 
  "▁レーヨン麻": 7423, 
  "rain": 7424, 
  "ボリュームブラウス": 7425, 
  "▁TP": 7426, 
  "モコモコ": 7427, 
  "▁SHIFT": 7428, 
  "▁SEARCH": 7429, 
  "▁キリカエ": 7430, 
  "防": 7431, 
  "マイクロ": 7432, 
  "▁ショートダッフル": 7433, 
  "フィッシュテール": 7434, 
  "ギンガムシャツ": 7435, 
  "天": 7436, 
  "02】": 7437, 
  "▁Netz": 7438, 
  "▁肩ボタン": 7439, 
  "▁麻調": 7440, 
  "ソデフリル": 7441, 
  "ビーミング": 7442, 
  "レースドッキングワンピース": 7443, 
  "▁中": 7444, 
  "口": 7445, 
  "▁Hal": 7446, 
  "ヴィ": 7447, 
  "カーディ": 7448, 
  "▁Jewel": 7449, 
  "▁Pineapp": 7450, 
  "▁Four": 7451, 
  "バギー": 7452, 
  "▁ラメ使い": 7453, 
  "▁Your": 7454, 
  "▁プレーティング": 7455, 
  "▁Taco": 7456, 
  "ムートンコート": 7457, 
  "▁Reflective": 7458, 
  "▁TorsadAc": 7459, 
  "▁ローズプリント": 7460, 
  "▁Khakigrn": 7461, 
  "▁Yale": 7462, 
  "▁CHIFF": 7463, 
  "299★": 7464, 
  "▁Rucken": 7465, 
  "▁ループヤーン": 7466, 
  "▁JG": 7467, 
  "クルーカーデ": 7468, 
  "ソ": 7469, 
  "ネックデザイン": 7470, 
  "▁Occasion": 7471, 
  "alent": 7472, 
  "搭": 7473, 
  "ウエストシャーリング": 7474, 
  "▁Ljusgra": 7475, 
  "▁シアーストライプ": 7476, 
  "ウィンド": 7477, 
  "▁インディゴ裏毛": 7478, 
  "▁脇": 7479, 
  "▁シー": 7480, 
  "Jeana": 7481, 
  "▁THERMAL": 7482, 
  "ジャガードプルオーバー": 7483, 
  "装": 7484, 
  "▁フ": 7485, 
  "バックロング": 7486, 
  "ロール": 7487, 
  "ネックカーデ": 7488, 
  "▁Mi": 7489, 
  "▁Avenue": 7490, 
  "国産": 7491, 
  "relax": 7492, 
  "jo": 7493, 
  "▁Jewelle": 7494, 
  "▁レギュラーカラー": 7495, 
  "▁Klasyczna": 7496, 
  "▁オーバーオール": 7497, 
  "▁Spitzenbluse": 7498, 
  "schino": 7499, 
  "プリントクルーネック": 7500, 
  "▁Venice": 7501, 
  "軍裝": 7502, 
  "leaf": 7503, 
  "▁Flamingo": 7504, 
  "▁フーディー": 7505, 
  "フーディガン": 7506, 
  "chen": 7507, 
  "▁VICTORIA": 7508, 
  "ERG": 7509, 
  "▁silk": 7510, 
  "トラックパンツ": 7511, 
  "cycle": 7512, 
  "▁GRAMICCI": 7513, 
  "アウト": 7514, 
  "テーパードスラックス": 7515, 
  "ドルマンワンピース": 7516, 
  "▁RV": 7517, 
  "スタープリント": 7518, 
  "ねじり": 7519, 
  "IDA": 7520, 
  "ama": 7521, 
  "TON": 7522, 
  "▁タックボーダー": 7523, 
  "▁Falten": 7524, 
  "▁ダブルポケット": 7525, 
  "▁33": 7526, 
  "PL": 7527, 
  "agen": 7528, 
  "▁Raffung": 7529, 
  "▁モールスキン": 7530, 
  "▁BALLOON": 7531, 
  "▁Naomi": 7532, 
  "アロハシャツ": 7533, 
  "滾邊": 7534, 
  "▁GREEN": 7535, 
  "ウェーブ": 7536, 
  "バンダナ柄": 7537, 
  "▁Trapez": 7538, 
  "ハンド": 7539, 
  "車": 7540, 
  "▁cape": 7541, 
  "-00": 7542, 
  "先染め": 7543, 
  "運動風": 7544, 
  "ニットセーター": 7545, 
  "▁Forest": 7546, 
  "▁藍色": 7547, 
  "▁Pel": 7548, 
  "スリーブレス": 7549, 
  "ist": 7550, 
  "vado": 7551, 
  "▁ママドレス": 7552, 
  "▁ハナ": 7553, 
  "▁OM": 7554, 
  "SUPER": 7555, 
  "ビジューニットカーディガン": 7556, 
  "▁タックデザインスカート": 7557, 
  "▁Decon": 7558, 
  "▁Ou": 7559, 
  "4-1": 7560, 
  "サイドタック": 7561, 
  "▁総": 7562, 
  "▁COJ": 7563, 
  "▁PACIFIC": 7564, 
  "▁Obe": 7565, 
  "▁Li": 7566, 
  "mond": 7567, 
  "▁Orl": 7568, 
  "▁Armeln": 7569, 
  "▁Aero": 7570, 
  "▁Yum": 7571, 
  "▁フロントクロス": 7572, 
  "▁ANAPBACK": 7573, 
  "▁MintgrA": 7574, 
  "▁Thorn": 7575, 
  "▁BA": 7576, 
  "▁PILE": 7577, 
  "▁ニュー": 7578, 
  "▁Chalk": 7579, 
  "▁FOX": 7580, 
  "▁Jade": 7581, 
  "▁ブラウジング": 7582, 
  "ノースリシャツ": 7583, 
  "BS": 7584, 
  "▁Sweetheart": 7585, 
  "▁NS": 7586, 
  "▁パンツドレス": 7587, 
  "▁ボトム": 7588, 
  "小清新": 7589, 
  "-511&#8482": 7590, 
  "フラップ": 7591, 
  "▁Poppy": 7592, 
  "▁開襟": 7593, 
  "品": 7594, 
  "スリット入り": 7595, 
  "▁の": 7596, 
  "つボタン": 7597, 
  "Puder": 7598, 
  "▁WEAR": 7599, 
  "Jerseyshirt": 7600, 
  "▁刺繍ロゴ": 7601, 
  "3-1": 7602, 
  "▁Fall": 7603, 
  "▁ジオメトリック柄": 7604, 
  "▁スキッパーブラウス": 7605, 
  "ita": 7606, 
  "ツ釦": 7607, 
  "▁BODY": 7608, 
  "▁フラワージャガード": 7609, 
  "▁エンボス": 7610, 
  "▁Sketch": 7611, 
  "▁かぎ針": 7612, 
  "▁An": 7613, 
  "▁grose": 7614, 
  "▁Patches": 7615, 
  "▁編み柄": 7616, 
  "▁Bianca": 7617, 
  "リブハイネック": 7618, 
  "▁Earth": 7619, 
  "▁FL": 7620, 
  "▁ミッキー": 7621, 
  "▁Spetskl": 7622, 
  "▁プードル": 7623, 
  "001": 7624, 
  "▁ミリタリーブルゾン": 7625, 
  "Narrow": 7626, 
  "▁pullover": 7627, 
  "ピー": 7628, 
  "▁スヌード付き": 7629, 
  "97": 7630, 
  "HNPO": 7631, 
  "カバーオール": 7632, 
  "▁ウールカシミヤ": 7633, 
  "▁OS": 7634, 
  "ケーブル柄": 7635, 
  "▁前身": 7636, 
  "house": 7637, 
  "▁velour": 7638, 
  "▁Camouflage": 7639, 
  "▁LCT": 7640, 
  "ショートプルオーバー": 7641, 
  "▁Oberteil": 7642, 
  "inkoff": 7643, 
  "▁レースフリル": 7644, 
  "▁frutt": 7645, 
  "▁ボタニカルフラワー": 7646, 
  "▁LEGGINGS": 7647, 
  "▁Marque": 7648, 
  "▁ハイネックニットプルオーバー": 7649, 
  "PRINT": 7650, 
  "▁Tapes": 7651, 
  "lin": 7652, 
  "▁part": 7653, 
  "▁Ok": 7654, 
  "iye": 7655, 
  "ストレッチニット": 7656, 
  "▁HALF": 7657, 
  "オープンカラー": 7658, 
  "glie": 7659, 
  "/40": 7660, 
  "▁Randig": 7661, 
  "cal": 7662, 
  "▁レーススカート": 7663, 
  "▁ZEBRA": 7664, 
  "ゾ": 7665, 
  "▁Emilia": 7666, 
  "▁Seidenmischung": 7667, 
  "▁Motor": 7668, 
  "Caviar": 7669, 
  "スライバー": 7670, 
  "ck": 7671, 
  "argue": 7672, 
  "Rosen": 7673, 
  "▁Nora": 7674, 
  "から選べる": 7675, 
  "▁chiffon": 7676, 
  "▁Jerseyrock": 7677, 
  "SWEAT": 7678, 
  "ドルマンカーディガン": 7679, 
  "▁ラクーン": 7680, 
  "31": 7681, 
  "ラメ混": 7682, 
  "▁レース袖": 7683, 
  "黑白": 7684, 
  "ビーチパジャマ": 7685, 
  "60】": 7686, 
  "▁裾刺繍": 7687, 
  "ペプラムプルオーバー": 7688, 
  "▁卒業式": 7689, 
  "▁牛仔短": 7690, 
  "▁South": 7691, 
  "▁Waste": 7692, 
  "84": 7693, 
  "ake": 7694, 
  "▁turtle": 7695, 
  "▁paskiem": 7696, 
  "▁BEAR": 7697, 
  "75】": 7698, 
  "▁Gyps": 7699, 
  "▁American": 7700, 
  "▁Caroline": 7701, 
  "▁Tribe": 7702, 
  "ショールカラージャケット": 7703, 
  "▁Dots": 7704, 
  "VJS": 7705, 
  "▁kostymbyx": 7706, 
  "▁Trackpant": 7707, 
  "ギャザーワイドパンツ": 7708, 
  "▁Still": 7709, 
  "じ": 7710, 
  "▁Reisverschluss": 7711, 
  "▁短": 7712, 
  "▁Plommon": 7713, 
  "サイドリボン": 7714, 
  "▁デニム調": 7715, 
  "▁リーフプリント": 7716, 
  "▁ダイヤ柄": 7717, 
  "▁BIKER": 7718, 
  "デニムブルゾン": 7719, 
  "飛行外套": 7720, 
  "▁RAGLAN": 7721, 
  "イレギュラー": 7722, 
  "▁Settimissimo": 7723, 
  "▁mid": 7724, 
  "デニムワイド": 7725, 
  "BLACK": 7726, 
  "66】": 7727, 
  "▁Meadow": 7728, 
  "DC": 7729, 
  "シングルジャケット": 7730, 
  "▁un": 7731, 
  "▁CHEAP": 7732, 
  "ステンカラー": 7733, 
  "▁Mile": 7734, 
  "▁Jeansx": 7735, 
  "テロンチコート": 7736, 
  "gr": 7737, 
  "▁Archive": 7738, 
  "▁5-": 7739, 
  "▁アロハ": 7740, 
  "▁スヌーピー": 7741, 
  "牛仔外套": 7742, 
  "レディー": 7743, 
  "NCE": 7744, 
  "03】": 7745, 
  "▁Beau": 7746, 
  "hang": 7747, 
  "テールカット": 7748, 
  "▁ベーシックシャツ": 7749, 
  "▁花レース": 7750, 
  "ダイヤ": 7751, 
  "ltered": 7752, 
  "HO": 7753, 
  "obble": 7754, 
  "ora": 7755, 
  "▁タッセル": 7756, 
  "isv": 7757, 
  "▁Apple": 7758, 
  "▁WOMAN": 7759, 
  "▁Dunkel": 7760, 
  "▁Week": 7761, 
  "ジェ": 7762, 
  "▁Coca": 7763, 
  "キノウ": 7764, 
  "▁UBC": 7765, 
  "透け": 7766, 
  "▁MOON": 7767, 
  "ふ": 7768, 
  "▁Worker": 7769, 
  "▁three": 7770, 
  "ラグランスリーブ": 7771, 
  "nvin": 7772, 
  "bel": 7773, 
  "スリムフィットポロ": 7774, 
  "▁Kontrast": 7775, 
  "06】": 7776, 
  "カラーコート": 7777, 
  "▁col": 7778, 
  "ハートネック": 7779, 
  "▁パターン": 7780, 
  "▁COLLEGE": 7781, 
  "ガーデン": 7782, 
  "娃娃": 7783, 
  "▁lA": 7784, 
  "國旗": 7785, 
  "打底衫": 7786, 
  "▁RAINBOW": 7787, 
  "ちび": 7788, 
  "ライオン": 7789, 
  "Ny": 7790, 
  "スムースプルオーバー": 7791, 
  "スカラップ刺繍": 7792, 
  "&#9834;": 7793, 
  "▁メール便可": 7794, 
  "WEAR": 7795, 
  "kha": 7796, 
  "▁TWO": 7797, 
  "▁バックオープン": 7798, 
  "▁背中": 7799, 
  "▁ネックビジュー": 7800, 
  "▁skA": 7801, 
  "▁シェル": 7802, 
  "▁ミッキーマウス": 7803, 
  "▁ノースリーブワンピース": 7804, 
  "▁HOT": 7805, 
  "▁Scott": 7806, 
  "▁RY": 7807, 
  "レン": 7808, 
  "▁FOOD": 7809, 
  "▁一重": 7810, 
  "袖刺繍": 7811, 
  "ミディタイトスカート": 7812, 
  "▁FOIL": 7813, 
  "▁RagsUnite": 7814, 
  "▁デニムライク": 7815, 
  "WORK": 7816, 
  "▁キャンディースリーブ": 7817, 
  "カラースカート": 7818, 
  "▁バックジップ": 7819, 
  "▁チビ": 7820, 
  "▁open": 7821, 
  "▁FOR": 7822, 
  "▁Rein": 7823, 
  "スーパー": 7824, 
  "ニットプル": 7825, 
  "▁Doris": 7826, 
  "カットソートップス": 7827, 
  "針織毛衣": 7828, 
  "▁Pferdgarten": 7829, 
  "▁Baum": 7830, 
  "▁BIKINI": 7831, 
  "▁イレギュラー": 7832, 
  "▁SZ": 7833, 
  "▁Phantom": 7834, 
  "ワイドブラウス": 7835, 
  "ウィンドウペン": 7836, 
  "バックシャンプルオーバー": 7837, 
  "▁綿混": 7838, 
  "▁ボーダープルオーバー": 7839, 
  "▁ボリュームスリーブニット": 7840, 
  "▁メンアサ": 7841, 
  "ブタケ": 7842, 
  "バンド": 7843, 
  "▁ラウンドヘム": 7844, 
  "be": 7845, 
  "前後差": 7846, 
  "▁Cuffed": 7847, 
  "▁ワイドシルエット": 7848, 
  "ロングブルゾン": 7849, 
  "▁LHELBIE": 7850, 
  "目": 7851, 
  "Rosa": 7852, 
  "▁Japan": 7853, 
  "▁Empr": 7854, 
  "▁ポップコーン": 7855, 
  "▁bla": 7856, 
  "motiv": 7857, 
  "▁USED": 7858, 
  "單寧牛仔": 7859, 
  "res": 7860, 
  "▁Panels": 7861, 
  "たっぷり": 7862, 
  "▁ピーチスキン": 7863, 
  "vo": 7864, 
  "BITTER": 7865, 
  "細ボーダー": 7866, 
  "▁JAPAN": 7867, 
  "モチーフレース": 7868, 
  "▁下": 7869, 
  "▁長版": 7870, 
  "▁條紋": 7871, 
  "alme": 7872, 
  "▁Shorty": 7873, 
  "▁袖ファー": 7874, 
  "▁zum": 7875, 
  "▁花柄フレアスカート": 7876, 
  "▁Wadenlange": 7877, 
  "▁WIND": 7878, 
  "otted": 7879, 
  "▁柄編み": 7880, 
  "lette": 7881, 
  "22】": 7882, 
  "▁フロントレースアップ": 7883, 
  "NTJBN": 7884, 
  "▁カツラギ": 7885, 
  "ban": 7886, 
  "▁Exper": 7887, 
  "柄プリント": 7888, 
  "下擺": 7889, 
  "▁Candy": 7890, 
  "PANTS": 7891, 
  "▁ウェーブ": 7892, 
  "151": 7893, 
  "レギュラーフィット": 7894, 
  "ハイネックニットプルオーバー": 7895, 
  "▁tk": 7896, 
  "レースガウン": 7897, 
  "窄直筒": 7898, 
  "ダブルライダース": 7899, 
  "アルパカ": 7900, 
  "10】": 7901, 
  "ino": 7902, 
  "ギー": 7903, 
  "サー": 7904, 
  "▁チェックジャガード": 7905, 
  "フレアー袖": 7906, 
  "▁丸首": 7907, 
  "▁ぺプラム": 7908, 
  "フリンジスカート": 7909, 
  "雙": 7910, 
  "1-1": 7911, 
  "モリ": 7912, 
  "ISSE": 7913, 
  "サイドレースアップ": 7914, 
  "フードジャケット": 7915, 
  "▁Cecili": 7916, 
  "ugi": 7917, 
  "51": 7918, 
  "▁Jeanshemd": 7919, 
  "▁Smith": 7920, 
  "▁zak": 7921, 
  "▁DROP": 7922, 
  "▁Paint": 7923, 
  "コラージュ": 7924, 
  "▁トライバル柄": 7925, 
  "▁漂淺藍": 7926, 
  "ダブルジャケット": 7927, 
  "マキシ丈スカート": 7928, 
  "ストレートスカート": 7929, 
  "me": 7930, 
  "アート": 7931, 
  "ベージュ": 7932, 
  "quarter": 7933, 
  "▁koszula": 7934, 
  "RISE": 7935, 
  "▁ho": 7936, 
  "胸ポケット": 7937, 
  "▁Rits": 7938, 
  "レースアップニット": 7939, 
  "▁Allure": 7940, 
  "▁天竺ボーダー": 7941, 
  "▁leopard": 7942, 
  "GE": 7943, 
  "▁Traditional": 7944, 
  "ボーダーニットワンピース": 7945, 
  "收腰": 7946, 
  "チュールワンピース": 7947, 
  "ケミカルレース": 7948, 
  "サテンシャツ": 7949, 
  "futter": 7950, 
  "鳥": 7951, 
  "▁裾切り替え": 7952, 
  "Paisley": 7953, 
  "▁CrA": 7954, 
  "ti": 7955, 
  "ータ": 7956, 
  "リブ編みニット": 7957, 
  "▁シャツドッキング": 7958, 
  "▁Zweilagige": 7959, 
  "點點": 7960, 
  "ピンク": 7961, 
  "SWT": 7962, 
  "▁NOT": 7963, 
  "▁米白": 7964, 
  "▁袖リボンブラウス": 7965, 
  "888】": 7966, 
  "▁BLAZER": 7967, 
  "▁LONGSLEEVE": 7968, 
  "切替ブラウス": 7969, 
  "サン": 7970, 
  "▁JOGGER": 7971, 
  "▁Kette": 7972, 
  "On": 7973, 
  "AMERICANA": 7974, 
  "リンガー": 7975, 
  "▁經典": 7976, 
  "ano": 7977, 
  "▁トップ": 7978, 
  "▁Leichte": 7979, 
  "ホール": 7980, 
  "GrA": 7981, 
  "Sweatshirt": 7982, 
  "▁ウォーム": 7983, 
  "OPPER": 7984, 
  "オーバーコート": 7985, 
  "▁FAKE": 7986, 
  "▁CULOTTE": 7987, 
  "druck": 7988, 
  "モヘヤ": 7989, 
  "▁Molly": 7990, 
  "▁MAISON": 7991, 
  "潮流嚴選韓版素色": 7992, 
  "▁STENCIL": 7993, 
  "▁Schluppenbluse": 7994, 
  "▁ショール": 7995, 
  "模様": 7996, 
  "ワイドシャツ": 7997, 
  "▁Novel": 7998, 
  "スリムフィット": 7999, 
  "大口袋": 8000, 
  "▁Lacoste": 8001, 
  "ボーダー長袖": 8002, 
  "リボン袖": 8003, 
  "andkerchief": 8004, 
  "ベア天": 8005, 
  "▁Mer": 8006, 
  "▁ハイツイスト": 8007, 
  "▁Care": 8008, 
  "ボトム": 8009, 
  "クル": 8010, 
  "breast": 8011, 
  "▁フロント釦": 8012, 
  "▁アビガイル": 8013, 
  "▁Garcon": 8014, 
  "ラインミニスカート": 8015, 
  "ハイウエストスカート": 8016, 
  "61】": 8017, 
  "▁FREEMA": 8018, 
  "Ne": 8019, 
  "ラップパンツ": 8020, 
  "ランニング": 8021, 
  "アー": 8022, 
  "▁Illusion": 8023, 
  "Tanktop": 8024, 
  "▁TAILOR": 8025, 
  "膝丈": 8026, 
  "▁SB": 8027, 
  "袖ギャザー": 8028, 
  "rate": 8029, 
  "エステル": 8030, 
  "▁Chen": 8031, 
  "▁スリムフィット": 8032, 
  "▁JaspAc": 8033, 
  "▁krossa": 8034, 
  "▁小花": 8035, 
  "バイオ": 8036, 
  "Glittrig": 8037, 
  "▁weite": 8038, 
  "79": 8039, 
  "▁Mickey": 8040, 
  "▁シャドーストライプ": 8041, 
  "▁Reef": 8042, 
  "▁チュール刺繍": 8043, 
  "sey": 8044, 
  "▁リバーシブルスカート": 8045, 
  "athan": 8046, 
  "英文": 8047, 
  "▁BF": 8048, 
  "シフォン切り替え": 8049, 
  "▁メタリック": 8050, 
  "スリットタイトスカート": 8051, 
  "▁Wax": 8052, 
  "tum": 8053, 
  "片畦ニット": 8054, 
  "▁SE": 8055, 
  "olka": 8056, 
  "結": 8057, 
  "分シャツ": 8058, 
  "ウシロ": 8059, 
  "▁ビジネス": 8060, 
  "▁STIN": 8061, 
  "▁Rhon": 8062, 
  "▁オフショルダーブラウス": 8063, 
  "分プルオーバー": 8064, 
  "▁Applikation": 8065, 
  "isch": 8066, 
  "MVS": 8067, 
  "▁East": 8068, 
  "▁マーメイド": 8069, 
  "▁Sli": 8070, 
  "▁細身": 8071, 
  "杢裏毛": 8072, 
  "▁Bat": 8073, 
  "▁YOU": 8074, 
  "ショートトップス": 8075, 
  "車線": 8076, 
  "ストライプカットソー": 8077, 
  "質感": 8078, 
  "ストレッチワンピース": 8079, 
  "コット": 8080, 
  "クライミング": 8081, 
  "▁フードつき": 8082, 
  "▁イレギュラーヘムスカート": 8083, 
  "▁フクレ": 8084, 
  "ガーター編み": 8085, 
  "▁Stars": 8086, 
  "タイトミディスカート": 8087, 
  "▁Freya": 8088, 
  "▁ハウンドトゥース": 8089, 
  "sw": 8090, 
  "ゼ": 8091, 
  "サテンスカート": 8092, 
  "▁IM": 8093, 
  "気": 8094, 
  "CUT": 8095, 
  "染め": 8096, 
  "▁ロングパンツ": 8097, 
  "無袖背心": 8098, 
  "ool": 8099, 
  "800": 8100, 
  "パック": 8101, 
  "ched": 8102, 
  "ID": 8103, 
  "▁PELMET": 8104, 
  "畔": 8105, 
  "▁Bronze": 8106, 
  "gen": 8107, 
  "▁Biesen": 8108, 
  "▁Alpa": 8109, 
  "▁Jupe": 8110, 
  "IDE": 8111, 
  "bow": 8112, 
  "▁総柄プリント": 8113, 
  "met": 8114, 
  "▁フェイクパール": 8115, 
  "CB": 8116, 
  "▁Dior": 8117, 
  "▁アコーディオンプリーツ": 8118, 
  "▁コーティング": 8119, 
  "▁Jet": 8120, 
  "ユニーク": 8121, 
  "▁フロント刺繍": 8122, 
  "ホ": 8123, 
  "重ね着風": 8124, 
  "カコウ": 8125, 
  "コーデ": 8126, 
  "▁ビジューデザイン": 8127, 
  "1090": 8128, 
  "▁JA": 8129, 
  "ロングニットカーデ": 8130, 
  "▁Gul": 8131, 
  "フハク": 8132, 
  "▁Vinr": 8133, 
  "レギンスパンツ": 8134, 
  "iny": 8135, 
  "▁学校": 8136, 
  "▁Laser": 8137, 
  "Rot": 8138, 
  "▁Tunnelzug": 8139, 
  "▁ヘビーウェイト": 8140, 
  "▁Like": 8141, 
  "ソデボリューム": 8142, 
  "BLOCK": 8143, 
  "▁ネルチェックシャツ": 8144, 
  "▁suit": 8145, 
  "潮流嚴選純色": 8146, 
  "ANNA": 8147, 
  "▁エコファー": 8148, 
  "▁花柄ワンピース": 8149, 
  "▁礼服": 8150, 
  "春物": 8151, 
  "▁抜け衿": 8152, 
  "▁Shir": 8153, 
  "シフォンプリーツ": 8154, 
  "▁Arch": 8155, 
  "rad": 8156, 
  "▁ドビーストライプ": 8157, 
  "TCR": 8158, 
  "▁ruffled": 8159, 
  "オフショルカットソー": 8160, 
  "ned": 8161, 
  "▁Tasche": 8162, 
  "カジュアルパンツ": 8163, 
  "▁Vince": 8164, 
  "Liss": 8165, 
  "▁バスケット": 8166, 
  "フラワーニット": 8167, 
  "共ベルト付": 8168, 
  "ダー": 8169, 
  "オール": 8170, 
  "ベルト付ワイドパンツ": 8171, 
  "▁rami": 8172, 
  "クレリックシャツ": 8173, 
  "▁ボウタイブラウス": 8174, 
  "▁Leinenkleid": 8175, 
  "プリ": 8176, 
  "▁Perry": 8177, 
  "▁Jeanne": 8178, 
  "▁Lochmuster": 8179, 
  "Medium": 8180, 
  "▁Jacquardv": 8181, 
  "▁Doppellagige": 8182, 
  "▁ロー": 8183, 
  "折り返し": 8184, 
  "▁JOE": 8185, 
  "▁Nu": 8186, 
  "▁you": 8187, 
  "▁Langarmbluse": 8188, 
  "▁Volantarmeln": 8189, 
  "▁幾何": 8190, 
  "▁スカーフ": 8191, 
  "▁Dan": 8192, 
  "7>": 8193, 
  "とろみ": 8194, 
  "67": 8195, 
  "▁カラーブロッキング": 8196, 
  "▁星条旗柄": 8197, 
  "rm": 8198, 
  "▁Strickcardigan": 8199, 
  "61": 8200, 
  "▁Sable": 8201, 
  "ミドルゲージニット": 8202, 
  "Hunch": 8203, 
  "▁Photo": 8204, 
  "▁ブラックフォーマル": 8205, 
  "オーガニック": 8206, 
  "▁サスペンダー付": 8207, 
  "リボンプルオーバー": 8208, 
  "▁FI": 8209, 
  "ブルオーバー": 8210, 
  "▁Bold": 8211, 
  "sack": 8212, 
  "ford": 8213, 
  "▁Tailor": 8214, 
  "▁Vneck": 8215, 
  "●(": 8216, 
  "7-1": 8217, 
  "urtka": 8218, 
  "main": 8219, 
  "▁Italy": 8220, 
  "GV": 8221, 
  "▁Con": 8222, 
  "rashed": 8223, 
  "▁Swan": 8224, 
  "MENT": 8225, 
  "▁Basket": 8226, 
  "タックテーパード": 8227, 
  "HI": 8228, 
  "▁ティアードフリル": 8229, 
  "ジャー": 8230, 
  "シーナ": 8231, 
  "アル": 8232, 
  "▁Waves": 8233, 
  "シャツディガン": 8234, 
  "▁Rep": 8235, 
  "▁アメカジ": 8236, 
  "▁ラグランスリーブ": 8237, 
  "▁秋冬": 8238, 
  "七分袖プルオーバー": 8239, 
  "ミラノリブニット": 8240, 
  "▁スカシ": 8241, 
  "GC": 8242, 
  "ポンチジャケット": 8243, 
  "サブリナパンツ": 8244, 
  "CUTA": 8245, 
  "▁Gar": 8246, 
  "▁グロッシー": 8247, 
  "▁futrzana": 8248, 
  "roque": 8249, 
  "貼章": 8250, 
  "チョーカー": 8251, 
  "ホルター": 8252, 
  "▁Buttons": 8253, 
  "▁Feinstrickshirt": 8254, 
  "2018": 8255, 
  "プリントデザイン": 8256, 
  "▁カラミ": 8257, 
  "Glitzernd": 8258, 
  "rd": 8259, 
  "後ろリボン": 8260, 
  "ヘンケイ": 8261, 
  "棉質長": 8262, 
  "+0081>": 8263, 
  "ベロアプルオーバー": 8264, 
  "▁ロゴ刺しゅう": 8265, 
  "▁重ね着風": 8266, 
  "棒球外套夾克": 8267, 
  "ini": 8268, 
  "▁Kolla": 8269, 
  "▁Real": 8270, 
  "ブルージーンズ": 8271, 
  "▁シアサッカー": 8272, 
  "ジャージパンツ": 8273, 
  "▁スタンダード": 8274, 
  "▁Maria": 8275, 
  "▁Yo": 8276, 
  "▁Fuschia": 8277, 
  "▁吊裏毛": 8278, 
  "▁ツーピース": 8279, 
  "krage": 8280, 
  "チルデン": 8281, 
  "▁bell": 8282, 
  "▁ガンクラブチェック": 8283, 
  "▁Gekreppte": 8284, 
  "▁or": 8285, 
  "▁PIN": 8286, 
  "▁レースボンディング": 8287, 
  "ohem": 8288, 
  "▁レースガウン": 8289, 
  "▁Weave": 8290, 
  "BARA": 8291, 
  "▁すきな丈スカート": 8292, 
  "▁日本男裝": 8293, 
  "▁ミリオンホット": 8294, 
  "▁Action": 8295, 
  "igg": 8296, 
  "王": 8297, 
  "▁Sal": 8298, 
  "64": 8299, 
  "ファンシー": 8300, 
  "▁WING": 8301, 
  "Jogginghose": 8302, 
  "▁オフショルブラウス": 8303, 
  "タートルネックカットソー": 8304, 
  "459": 8305, 
  "▁プチ": 8306, 
  "▁Cargojack": 8307, 
  "COTTON": 8308, 
  "▁復古": 8309, 
  "ハーフミラノ": 8310, 
  "モールニット": 8311, 
  "round": 8312, 
  "▁ビッグカラー": 8313, 
  "SSENTI": 8314, 
  "icky": 8315, 
  "ber": 8316, 
  "58": 8317, 
  "▁レースタンクトップ": 8318, 
  "▁ビジュー釦": 8319, 
  "15】": 8320, 
  "▁小花プリント": 8321, 
  "上品": 8322, 
  "▁袖切り替え": 8323, 
  "IES": 8324, 
  "▁mat": 8325, 
  "▁nude": 8326, 
  "ライ": 8327, 
  "火": 8328, 
  "NTJBJN": 8329, 
  "rry": 8330, 
  "ラウンドカラー": 8331, 
  "學院風": 8332, 
  "▁EX": 8333, 
  "▁Strangle": 8334, 
  "製品染": 8335, 
  "▁ミル": 8336, 
  "▁Key": 8337, 
  "▁ジグザグ": 8338, 
  "▁Fellimitat": 8339, 
  "▁Montana": 8340, 
  "レース切替プルオーバー": 8341, 
  "から": 8342, 
  "窄": 8343, 
  "aw": 8344, 
  "2-1": 8345, 
  "▁もこもこ": 8346, 
  "使用": 8347, 
  "▁インディゴ天竺": 8348, 
  "編上げ": 8349, 
  "▁CP": 8350, 
  "▁Effe": 8351, 
  "レイヤードブラウス": 8352, 
  "▁1003": 8353, 
  "▁STRIPES": 8354, 
  "▁ハイウェスト": 8355, 
  "▁pr": 8356, 
  "▁DOG": 8357, 
  "KER": 8358, 
  "フレンチスリーブワンピース": 8359, 
  "▁前リボン": 8360, 
  "EST": 8361, 
  "▁Lyl": 8362, 
  "▁ハーフスリーブ": 8363, 
  "▁Window": 8364, 
  "フレンチブラウス": 8365, 
  "▁mang": 8366, 
  "▁フォックスファー": 8367, 
  "デニムウエスタンシャツ": 8368, 
  "ハーフコート": 8369, 
  "情侶": 8370, 
  "ワンボタン": 8371, 
  "▁スタッズ": 8372, 
  "▁肩タック": 8373, 
  "▁renda": 8374, 
  "ke": 8375, 
  "▁SUGAR": 8376, 
  "▁25": 8377, 
  "▁cap": 8378, 
  "▁ダブルボタン": 8379, 
  "▁レーヨンリネン": 8380, 
  "▁FLORENT": 8381, 
  "▁Aubergine": 8382, 
  "胸": 8383, 
  "▁Bound": 8384, 
  "▁LOW": 8385, 
  "潮流嚴選韓版字母": 8386, 
  "カモフラージュ": 8387, 
  "▁Cocoon": 8388, 
  "▁STYLE": 8389, 
  "フハクキリカエ": 8390, 
  "フレアスリーブニット": 8391, 
  "▁Ls": 8392, 
  "▁Windch": 8393, 
  "▁MENS": 8394, 
  "▁SNOW": 8395, 
  "さん": 8396, 
  "▁Speed": 8397, 
  "Palm": 8398, 
  "潮流嚴選素色素面": 8399, 
  "剪裁": 8400, 
  "透かし柄": 8401, 
  "lake": 8402, 
  "ボリュームスリーブプルオーバー": 8403, 
  "▁Limited": 8404, 
  "0-1": 8405, 
  "クロップトパンツ": 8406, 
  "ポンチタイトスカート": 8407, 
  "パールニット": 8408, 
  "グレンチェックパンツ": 8409, 
  "▁製品染め": 8410, 
  "nky": 8411, 
  "(2)": 8412, 
  "ウエストタック": 8413, 
  "▁Edition": 8414, 
  "海": 8415, 
  "▁Forever": 8416, 
  "▁Kurz": 8417, 
  "ど": 8418, 
  "前釦": 8419, 
  "▁Peacock": 8420, 
  "▁Single": 8421, 
  "▁luvyoutoo": 8422, 
  "▁PULL": 8423, 
  "▁Fu": 8424, 
  "▁ドライタッチ": 8425, 
  "▁綿ローン": 8426, 
  "▁Do": 8427, 
  "bo": 8428, 
  "フローラル": 8429, 
  "Sterne": 8430, 
  "▁DEEP": 8431, 
  "▁タ": 8432, 
  "斜": 8433, 
  "▁Bod": 8434, 
  "Carmenbluse": 8435, 
  "NDED": 8436, 
  "取り外し": 8437, 
  "▁アート": 8438, 
  "▁SOMETHING": 8439, 
  "▁510": 8440, 
  "ガンガンカーディガン": 8441, 
  "▁ROTHCO": 8442, 
  "dzlami": 8443, 
  "▁Av": 8444, 
  "レイヤード風カットソー": 8445, 
  "▁前後差": 8446, 
  "▁ロングカーデ": 8447, 
  "▁Advance": 8448, 
  "▁チェーン": 8449, 
  "▁0": 8450, 
  "▁Home": 8451, 
  "▁ベア天竺": 8452, 
  "einte": 8453, 
  "カラ": 8454, 
  "ガン": 8455, 
  "▁ネル": 8456, 
  "AST": 8457, 
  "繩": 8458, 
  "潮流嚴選韓版修身": 8459, 
  "VERY": 8460, 
  "▁フルーツ": 8461, 
  "針抜き": 8462, 
  "▁パステル": 8463, 
  "▁LEGGING": 8464, 
  "▁slit": 8465, 
  "▁Morkgron": 8466, 
  "▁Scarlet": 8467, 
  "▁カットジャガード": 8468, 
  "▁CANONICO": 8469, 
  "▁CHERRY": 8470, 
  "ポケットシャツ": 8471, 
  "フリ": 8472, 
  "▁groszki": 8473, 
  "クレリック": 8474, 
  "▁MARI": 8475, 
  "使いプルオーバー": 8476, 
  "▁ダメージデニム": 8477, 
  "ツイルワイドパンツ": 8478, 
  "VJ": 8479, 
  "▁トリコロール": 8480, 
  "▁機能素材": 8481, 
  "▁DAILY": 8482, 
  "西裝": 8483, 
  "BARCELONA": 8484, 
  "ドットワンピース": 8485, 
  "ネックプルオーバーニット": 8486, 
  "▁PALM": 8487, 
  "▁Ion": 8488, 
  "▁Rainbow": 8489, 
  "▁Glanzende": 8490, 
  "▁キモウ": 8491, 
  "urita": 8492, 
  "針織外套": 8493, 
  "▁Alex": 8494, 
  "anatelier": 8495, 
  "ラップワイドパンツ": 8496, 
  "▁Kate": 8497, 
  "合身": 8498, 
  "▁エアー": 8499, 
  "`": 8500, 
  "nd": 8501, 
  "▁Fake": 8502, 
  "▁ダブルサテン": 8503, 
  "フランネル": 8504, 
  "オーガン": 8505, 
  "▁RING": 8506, 
  "段フリル": 8507, 
  "バスケット": 8508, 
  "▁Adj": 8509, 
  "▁mi": 8510, 
  "▁Bust": 8511, 
  "▁Safari": 8512, 
  "アシンメトリースカート": 8513, 
  "アサ": 8514, 
  "ファーベスト": 8515, 
  "▁キャット": 8516, 
  "35】": 8517, 
  "87】": 8518, 
  "レッド": 8519, 
  "▁Globe": 8520, 
  "イソザイ": 8521, 
  "▁レース衿": 8522, 
  "キシャツ": 8523, 
  "▁wyci": 8524, 
  "▁女性": 8525, 
  "ugu": 8526, 
  "56": 8527, 
  "37】": 8528, 
  "ブーツカットパンツ": 8529, 
  "ound": 8530, 
  "▁ヒッコリー": 8531, 
  "LET": 8532, 
  "▁BABY": 8533, 
  "▁West": 8534, 
  "▁国産": 8535, 
  "畦編": 8536, 
  "VNT": 8537, 
  "シャキシャ": 8538, 
  "標": 8539, 
  "▁Brick": 8540, 
  "貼": 8541, 
  "▁オパールフラワー": 8542, 
  "▁Bobson": 8543, 
  "▁pA": 8544, 
  "すっきり": 8545, 
  "▁イタリアン": 8546, 
  "ループロゴ": 8547, 
  "む": 8548, 
  "ale": 8549, 
  "▁Paper": 8550, 
  "▁Grape": 8551, 
  "▁After": 8552, 
  "lime": 8553, 
  "58】": 8554, 
  "▁Shirtkleid": 8555, 
  "▁バックドレープ": 8556, 
  "ーンズ": 8557, 
  "rino": 8558, 
  "stic": 8559, 
  "▁NuGgET": 8560, 
  "スリ": 8561, 
  "肩フリル": 8562, 
  "▁イタリアンカラー": 8563, 
  "▁MAc": 8564, 
  "▁チョーカー付": 8565, 
  "▁DO": 8566, 
  "krA": 8567, 
  "チュ": 8568, 
  "切替ニット": 8569, 
  "▁crop": 8570, 
  "▁Fundamental": 8571, 
  "▁セットアップ風": 8572, 
  "衿ビジュー": 8573, 
  "▁orslow": 8574, 
  "ロゴプリントプルオーバー": 8575, 
  "▁ケーブル編みニット": 8576, 
  "27】": 8577, 
  "hift": 8578, 
  "BMC": 8579, 
  "▁シフォンスリーブ": 8580, 
  "▁ボリュームスリーブブラウス": 8581, 
  "6-1": 8582, 
  "ack": 8583, 
  "ment": 8584, 
  "インターシャ": 8585, 
  "チェックニット": 8586, 
  "▁Magic": 8587, 
  "▁dzianiny": 8588, 
  "ok": 8589, 
  "▁jedwabna": 8590, 
  "トリコ": 8591, 
  "▁衿フリル": 8592, 
  "LOW": 8593, 
  "▁River": 8594, 
  "BAY": 8595, 
  "▁Carbon": 8596, 
  "▁Marshmallow": 8597, 
  "▁shawl": 8598, 
  "▁Point": 8599, 
  "trA": 8600, 
  "靴型": 8601, 
  "キャンバス": 8602, 
  "5-1": 8603, 
  "▁LjusgrA": 8604, 
  "▁撥水": 8605, 
  "編ミ": 8606, 
  "33】": 8607, 
  "ヴ": 8608, 
  "▁ヴィンテージフラワー": 8609, 
  "▁裾フレア": 8610, 
  "uk": 8611, 
  "▁Knalang": 8612, 
  "▁Downtown": 8613, 
  "ulle": 8614, 
  "ヨウリュウ": 8615, 
  "スウィングトップ": 8616, 
  "スウエット": 8617, 
  "ボーイフレンド": 8618, 
  "LAND": 8619, 
  "ラップコート": 8620, 
  "▁カシュクールブラウス": 8621, 
  "▁PEARL": 8622, 
  "▁PATTERN": 8623, 
  "ニットトップ": 8624, 
  "013": 8625, 
  "▁ラビットファー": 8626, 
  "ルーズフィット": 8627, 
  "Tiger": 8628, 
  "▁COMPAC": 8629, 
  "▁Sol": 8630, 
  "▁スキニーデニム": 8631, 
  "ファー付き": 8632, 
  "▁Aspir": 8633, 
  "Interactive": 8634, 
  "▁袖フレアー": 8635, 
  "▁ペーパー": 8636, 
  "ONLY": 8637, 
  "マーガレット": 8638, 
  "▁JUNK": 8639, 
  "ドビーシャツ": 8640, 
  "ボーダー半袖": 8641, 
  "長袖トッパー": 8642, 
  "2017": 8643, 
  "▁吊り裏毛": 8644, 
  "▁ウォッシュド": 8645, 
  "▁Slash": 8646, 
  "▁三": 8647, 
  "▁Sweatpants": 8648, 
  "NTJB": 8649, 
  "フレアコート": 8650, 
  "▁綿麻シャンブレー": 8651, 
  "シャーク": 8652, 
  "▁Schulterfreie": 8653, 
  "▁RT": 8654, 
  "▁Neonorange": 8655, 
  "▁Comp": 8656, 
  "ネコ": 8657, 
  "七分牛仔": 8658, 
  "裾リブパンツ": 8659, 
  "▁JUST": 8660, 
  "ium": 8661, 
  "▁ボートネックプルオーバー": 8662, 
  "▁Whi": 8663, 
  "▁WHE": 8664, 
  "▁yul": 8665, 
  "▁Breeze": 8666, 
  "標語": 8667, 
  "Stella": 8668, 
  "alid": 8669, 
  "汗ジミ": 8670, 
  "mal": 8671, 
  "▁セレモニー": 8672, 
  "▁胸": 8673, 
  "▁スカーフ付": 8674, 
  "▁Search": 8675, 
  "▁Time": 8676, 
  "▁Keep": 8677, 
  "箔": 8678, 
  "スリムシャツ": 8679, 
  "▁Zweiteilige": 8680, 
  "多": 8681, 
  "▁Walkshort": 8682, 
  "▁ミリオンアイス": 8683, 
  "ルヴァー": 8684, 
  "491": 8685, 
  "アキ": 8686, 
  "装飾ニット": 8687, 
  "▁ワンショルダー": 8688, 
  "Front": 8689, 
  "▁Let": 8690, 
  "インレー": 8691, 
  "▁ラム": 8692, 
  "sel": 8693, 
  "ュ": 8694, 
  "In": 8695, 
  "Effekt": 8696, 
  "柄ブラウス": 8697, 
  "▁ショルダーフリル": 8698, 
  "▁リボン袖": 8699, 
  "▁1/1": 8700, 
  "▁PIQUE": 8701, 
  "タックギャザー": 8702, 
  "▁ビエラ起毛チェックシャツ": 8703, 
  "ZF": 8704, 
  "▁Hop": 8705, 
  "▁ルー": 8706, 
  "▁Yves": 8707, 
  "dy": 8708, 
  "jersey": 8709, 
  "▁Wing": 8710, 
  "NPO": 8711, 
  "THROUGH": 8712, 
  "ード": 8713, 
  ")60": 8714, 
  "1500": 8715, 
  "▁フラップポケット": 8716, 
  "etta": 8717, 
  "Details": 8718, 
  "ang": 8719, 
  "▁Tropic": 8720, 
  "ille": 8721, 
  "▁Lift": 8722, 
  "枚": 8723, 
  "MING": 8724, 
  "バックリボンプルオーバー": 8725, 
  "あったか": 8726, 
  "▁mock": 8727, 
  "▁ラウンドカラー": 8728, 
  "SF": 8729, 
  "タートルニットワンピース": 8730, 
  "▁op": 8731, 
  "▁Sonic": 8732, 
  "5622": 8733, 
  "]*": 8734, 
  "木": 8735, 
  "amouflage": 8736, 
  "▁水": 8737, 
  "▁transparente": 8738, 
  "▁BZ": 8739, 
  "▁リボンモチーフ": 8740, 
  "▁big": 8741, 
  "▁HEAVY": 8742, 
  "ハトメ": 8743, 
  "GAC": 8744, 
  "▁trapezowa": 8745, 
  "魚": 8746, 
  "wick": 8747, 
  "フレンチプルオーバー": 8748, 
  "▁ハトメ": 8749, 
  "block": 8750, 
  "▁WATER": 8751, 
  "▁マーガレット": 8752, 
  "▁Straw": 8753, 
  "STAR": 8754, 
  "▁TOKYO": 8755, 
  "刺繍ロゴ": 8756, 
  "▁ツイード調": 8757, 
  "エンブレム": 8758, 
  "ビエラチェック": 8759, 
  "▁Rec": 8760, 
  "▁Hold": 8761, 
  "ロングスリーブシャツ": 8762, 
  "ベルト付きワイドパンツ": 8763, 
  "ダブルライダースジャケット": 8764, 
  "裾リボン": 8765, 
  "38】": 8766, 
  "ビジューボタン": 8767, 
  "Stickerei": 8768, 
  "▁Speckle": 8769, 
  "▁Herz": 8770, 
  "修身小": 8771, 
  "▁マットサテン": 8772, 
  "モールヤーン": 8773, 
  "▁クラッシュデニム": 8774, 
  "數字": 8775, 
  "▁グラデ": 8776, 
  "32】": 8777, 
  "▁千鳥格子": 8778, 
  "Mid": 8779, 
  "▁袖フリルブラウス": 8780, 
  "▁Feel": 8781, 
  "▁stojk": 8782, 
  "アゼニット": 8783, 
  "Jet": 8784, 
  "▁Oriental": 8785, 
  "▁Cr": 8786, 
  "▁BOXY": 8787, 
  "ble": 8788, 
  "▁Sandra": 8789, 
  "ハイショク": 8790, 
  "▁Leo": 8791, 
  "▁メッセージ": 8792, 
  "オープンカラー半袖シャツ": 8793, 
  "オーバーキャミ": 8794, 
  "▁BOHO": 8795, 
  "▁袖スリット": 8796, 
  "▁Contour": 8797, 
  "リンクル": 8798, 
  "微起毛": 8799, 
  "▁CORDUROY": 8800, 
  "ショルダーレース": 8801, 
  "ヤ": 8802, 
  "▁FLI": 8803, 
  "▁セルビッチ": 8804, 
  "▁カットワークレース": 8805, 
  "▁Choker": 8806, 
  "▁Slippers": 8807, 
  ">(": 8808, 
  "ated": 8809, 
  "▁Santi": 8810, 
  "簡約休閒": 8811, 
  "▁select": 8812, 
  "▁Sull": 8813, 
  "▁BUD": 8814, 
  "▁Lana": 8815, 
  "チューリップ": 8816, 
  "Maxirock": 8817, 
  "巻": 8818, 
  "▁バルーン袖": 8819, 
  "▁サッシュベルト": 8820, 
  "ring": 8821, 
  "jk": 8822, 
  "▁Ap": 8823, 
  "▁リボンベルト付": 8824, 
  "▁Dyed": 8825, 
  "▁Wharf": 8826, 
  "▁Miller": 8827, 
  "▁Sioux": 8828, 
  "網紗": 8829, 
  "65】": 8830, 
  "プリーツワイドパンツ": 8831, 
  "ベルトつき": 8832, 
  "▁コットンタイプライター": 8833, 
  "▁ダンプ": 8834, 
  "コットンプルオーバー": 8835, 
  "▁ロゴデザイン": 8836, 
  "▁Soho": 8837, 
  "▁Ge": 8838, 
  "タン": 8839, 
  "羅紋": 8840, 
  "LEY": 8841, 
  "▁border": 8842, 
  "93": 8843, 
  "aux": 8844, 
  "テープヤーン": 8845, 
  "シン": 8846, 
  "▁ガーメントダイ": 8847, 
  "Edge": 8848, 
  "ナノ": 8849, 
  "▁GOLF": 8850, 
  "ILL": 8851, 
  "トロ": 8852, 
  "▁fringe": 8853, 
  "素": 8854, 
  "▁IV": 8855, 
  "BN": 8856, 
  "▁Tatt": 8857, 
  "プルオーパー": 8858, 
  "cote": 8859, 
  "71]": 8860, 
  "IKA": 8861, 
  "▁stitch": 8862, 
  "クラッシュデニム": 8863, 
  "▁チョーカー": 8864, 
  "▁運動": 8865, 
  "マー": 8866, 
  "ntarsia": 8867, 
  "▁オールシーズン": 8868, 
  "▁Holly": 8869, 
  "illa": 8870, 
  "ナチュラル": 8871, 
  "▁Pile": 8872, 
  "▁カスレ": 8873, 
  "透湿防水": 8874, 
  "598": 8875, 
  "ブリーチ": 8876, 
  "ackam": 8877, 
  "Spitze": 8878, 
  "分袖トップス": 8879, 
  "36】": 8880, 
  "ミディアム": 8881, 
  "▁FOOT": 8882, 
  "スカーフ": 8883, 
  "ベルスリーブブラウス": 8884, 
  "バルーンブラウス": 8885, 
  "ロスコ": 8886, 
  "織帶": 8887, 
  "sia": 8888, 
  "▁Kelly": 8889, 
  "▁DRAPE": 8890, 
  "橫條紋": 8891, 
  "プリーツミディスカート": 8892, 
  "ワッフルニット": 8893, 
  "▁BOU": 8894, 
  "17】": 8895, 
  "▁切り替えデザイン": 8896, 
  "ワイドイージーパンツ": 8897, 
  "ハナ": 8898, 
  "▁Yak": 8899, 
  "▁ファーポケット": 8900, 
  "JA": 8901, 
  "彩": 8902, 
  "タックフレアー": 8903, 
  "▁Vertical": 8904, 
  "ベーシックニット": 8905, 
  "▁Op": 8906, 
  "▁Overdyed": 8907, 
  "▁メタル": 8908, 
  "Girls": 8909, 
  "novi": 8910, 
  "▁Clara": 8911, 
  "オックスフォード": 8912, 
  "▁Jeansbluse": 8913, 
  "デニ": 8914, 
  "ecru": 8915, 
  "▁防": 8916, 
  "▁三色售": 8917, 
  "モコ": 8918, 
  "トラペーズ": 8919, 
  "anelled": 8920, 
  "ビジュー調": 8921, 
  "▁シルケット天竺": 8922, 
  "▁Ja": 8923, 
  "▁titivate": 8924, 
  "▁FLAG": 8925, 
  "▁Chiffontop": 8926, 
  "▁ベーシックタンクトップ": 8927, 
  "layer": 8928, 
  "ボーダ": 8929, 
  "袖切替": 8930, 
  "▁pyjama": 8931, 
  "▁pima": 8932, 
  "mermaid": 8933, 
  "eye": 8934, 
  "-09": 8935, 
  "杢調": 8936, 
  "▁Wyprzeda": 8937, 
  "袖ニット": 8938, 
  "▁Joyce": 8939, 
  "フードツキ": 8940, 
  "ダイケイ": 8941, 
  "ラウンドネック長袖": 8942, 
  "裡": 8943, 
  "スリットパンツ": 8944, 
  "▁ガーター": 8945, 
  "▁Fred": 8946, 
  "ome": 8947, 
  "468": 8948, 
  "472": 8949, 
  "▁カレッジロゴ": 8950, 
  "コンフォート": 8951, 
  "▁WARM": 8952, 
  "▁クレリック": 8953, 
  "接撞色": 8954, 
  "▁Digital": 8955, 
  "ヒラ": 8956, 
  "▁ストライプシャツワンピース": 8957, 
  "▁ノースリーブブラウス": 8958, 
  "編みニットプルオーバー": 8959, 
  "▁broderie": 8960, 
  "▁カーゴパンツ": 8961, 
  "▁DREAM": 8962, 
  "▁Stoffmix": 8963, 
  "rling": 8964, 
  "キャンディースリーブ": 8965, 
  "ence": 8966, 
  "76】": 8967, 
  "▁Fleurs": 8968, 
  "OUT": 8969, 
  "▁透かしボーダー": 8970, 
  "▁czerwony": 8971, 
  "Baumwollpullover": 8972, 
  "薄手": 8973, 
  "ポケ長袖": 8974, 
  "easpoon": 8975, 
  "▁GI": 8976, 
  "▁ロングコート": 8977, 
  "▁Je": 8978, 
  "oma": 8979, 
  "箔プリント": 8980, 
  "セミワイドパンツ": 8981, 
  "首": 8982, 
  "▁クラッシュベロア": 8983, 
  "リブタートルニット": 8984, 
  "▁meliert": 8985, 
  "ブレンド": 8986, 
  "▁DT": 8987, 
  "rip": 8988, 
  "▁タックドレープ": 8989, 
  "▁カシュクールニット": 8990, 
  "1967": 8991, 
  "バックプリーツ": 8992, 
  "▁Woman": 8993, 
  "▁ロングニット": 8994, 
  "穿": 8995, 
  "Longtop": 8996, 
  "▁SKATER": 8997, 
  "▁Crawl": 8998, 
  "モク": 8999, 
  "AMI": 9000, 
  "▁チュールプリーツ": 9001, 
  "▁ALPHA": 9002, 
  "排釦": 9003, 
  "▁POINT": 9004, 
  "毛邊": 9005, 
  "カタアゼ": 9006, 
  "ELLE": 9007, 
  "scrub": 9008, 
  "▁先染めチェック": 9009, 
  "56】": 9010, 
  "げ": 9011, 
  "▁Jacquardmuster": 9012, 
  "▁vintage": 9013, 
  "QUE": 9014, 
  "ネックドルマンニット": 9015, 
  "▁マキシワンピース": 9016, 
  "▁ビーバー": 9017, 
  "ネックオールインワン": 9018, 
  "▁原藍色": 9019, 
  "▁LC": 9020, 
  "バックスリット": 9021, 
  "▁スキスカ": 9022, 
  "▁pencil": 9023, 
  "オー": 9024, 
  "▁バンダナプリント": 9025, 
  "▁ca": 9026, 
  "▁幾何レース": 9027, 
  "OLLY": 9028, 
  "CAL": 9029, 
  "▁アイレットレース": 9030, 
  "▁70": 9031, 
  "720": 9032, 
  "▁GIZA": 9033, 
  "ペプラムトップス": 9034, 
  "▁ラメニット": 9035, 
  "▁Handmade": 9036, 
  "nge": 9037, 
  "荷葉邊": 9038, 
  "▁ロングチェスターコート": 9039, 
  "▁Rouge": 9040, 
  "▁Dragonfly": 9041, 
  "▁サスペンダー付き": 9042, 
  "反折": 9043, 
  "▁カモフラ柄": 9044, 
  "三角": 9045, 
  "▁Pal": 9046, 
  "チュニ": 9047, 
  "ポケ付き": 9048, 
  "リコテック": 9049, 
  "99": 9050, 
  "▁Luxury": 9051, 
  "81": 9052, 
  "プリーツスカンツ": 9053, 
  "▁ビッグチェック": 9054, 
  "▁HAWAII": 9055, 
  "▁Jam": 9056, 
  "wave": 9057, 
  "▁ユニセックス": 9058, 
  "オフタートルニットワンピース": 9059, 
  "ボウ": 9060, 
  "衣": 9061, 
  "▁Isle": 9062, 
  "▁ハイウエストワイドパンツ": 9063, 
  "▁Satintop": 9064, 
  "eater": 9065, 
  "▁VOLUME": 9066, 
  "ロゴプリントカットソー": 9067, 
  "▁TSHIRT": 9068, 
  "ied": 9069, 
  "レース切り替えブラウス": 9070, 
  "▁FLA": 9071, 
  "方塊": 9072, 
  "する": 9073, 
  "バックシャンニット": 9074, 
  "カウチン": 9075, 
  "moha": 9076, 
  "▁Herb": 9077, 
  "dra": 9078, 
  "ニルバーナ": 9079, 
  "je": 9080, 
  "▁FLUFFY": 9081, 
  "▁メタリカ": 9082, 
  "▁Sofia": 9083, 
  "16】": 9084, 
  "Tex": 9085, 
  "ワンポケット": 9086, 
  "ノーカラーブラウス": 9087, 
  "▁ウォッシュ": 9088, 
  "領短袖": 9089, 
  "キラキラ": 9090, 
  "▁Etn": 9091, 
  "ody": 9092, 
  "09】": 9093, 
  "▁29": 9094, 
  "ip": 9095, 
  "ワイドスラックスパンツ": 9096, 
  "dla": 9097, 
  "SIDE": 9098, 
  "クロシェ": 9099, 
  "レースドレス": 9100, 
  "カーデガン": 9101, 
  "チャ": 9102, 
  "▁ai": 9103, 
  "▁Bag": 9104, 
  "▁サッカーストライプ": 9105, 
  "▁オリエンタル": 9106, 
  "▁Penny": 9107, 
  "▁Berry": 9108, 
  "▁Vou": 9109, 
  "ere": 9110, 
  "ジー": 9111, 
  "センター": 9112, 
  "▁Moul": 9113, 
  "oh": 9114, 
  "▁Tide": 9115, 
  "▁RN": 9116, 
  "プリントプルパーカー": 9117, 
  "メルトンコート": 9118, 
  "▁モ": 9119, 
  "UNCH": 9120, 
  "▁スキニーデニムパンツ": 9121, 
  "├": 9122, 
  "直筒牛仔": 9123, 
  "▁ふくれジャカード": 9124, 
  "COOLMAX": 9125, 
  "アーミー": 9126, 
  "▁プリント半袖": 9127, 
  "▁アラン柄": 9128, 
  "▁RAILS": 9129, 
  "▁Bein": 9130, 
  "▁Samtkleid": 9131, 
  "▁Crys": 9132, 
  "ウェスタンシャツ": 9133, 
  "▁Drift": 9134, 
  "ボーダーニットトップス": 9135, 
  "▁羽織り": 9136, 
  "チェーン": 9137, 
  "▁ユニーク": 9138, 
  "▁Cleo": 9139, 
  "▁FA": 9140, 
  "mon": 9141, 
  "ngsel": 9142, 
  "▁FREE": 9143, 
  "▁ミラノ": 9144, 
  "COOL": 9145, 
  "▁バラ": 9146, 
  "ケミカル": 9147, 
  "▁カジュアルシャツ": 9148, 
  "ニットキリカエ": 9149, 
  "▁Ben": 9150, 
  "▁コットンストレッチ": 9151, 
  "▁ウールリッチ": 9152, 
  "▁60/-": 9153, 
  "TK": 9154, 
  "▁Canvas": 9155, 
  "▁ママ友会": 9156, 
  "▁Klu": 9157, 
  "▁Coating": 9158, 
  "▁トラ": 9159, 
  "ノルディック": 9160, 
  "風ニット": 9161, 
  "eat": 9162, 
  "▁Stippen": 9163, 
  "Outs": 9164, 
  "▁半袖シャツ": 9165, 
  "▁cocktail": 9166, 
  "▁Mad": 9167, 
  "|": 9168, 
  "▁ストライプパンツ": 9169, 
  "ヘビー": 9170, 
  "fleece": 9171, 
  "▁ストライプスカート": 9172, 
  "▁綿レーヨン": 9173, 
  "ロングプリーツスカート": 9174, 
  "ロングダウンコート": 9175, 
  "レースシャツ": 9176, 
  "▁フリンジ付き": 9177, 
  "▁配色ボーダー": 9178, 
  "ろ": 9179, 
  "73】": 9180, 
  "▁シャツレイヤード風": 9181, 
  "bro": 9182, 
  "Justin": 9183, 
  "ボタンカーディガン": 9184, 
  "▁ラメリブ": 9185, 
  "▁Duck": 9186, 
  "▁Leisure": 9187, 
  "▁Roast": 9188, 
  "▁(2-": 9189, 
  "53】": 9190, 
  "▁ムートン": 9191, 
  "▁ストライプブラウス": 9192, 
  "バックタック": 9193, 
  "ベーカー": 9194, 
  "▁ANGIE": 9195, 
  "隨機": 9196, 
  "▁WI": 9197, 
  "三": 9198, 
  "ワッフルカットソー": 9199, 
  "▁旅行": 9200, 
  "owana": 9201, 
  "ボリューム袖ブラウス": 9202, 
  "▁Raincoat": 9203, 
  "05】": 9204, 
  "▁ステンカラー": 9205, 
  "▁デニムサロペット": 9206, 
  "古著": 9207, 
  "68】": 9208, 
  "▁FINE": 9209, 
  "▁slubtrik": 9210, 
  "▁Bomberjacke": 9211, 
  "カラーネップ": 9212, 
  "側": 9213, 
  "▁袖ギャザー": 9214, 
  "バラク": 9215, 
  "▁Delic": 9216, 
  "Dunkelblau": 9217, 
  "▁Tricot": 9218, 
  "set": 9219, 
  "▁Bump": 9220, 
  "▁Gurtel": 9221, 
  "▁AR": 9222, 
  "クルーネックニットソー": 9223, 
  "慢": 9224, 
  "螺紋": 9225, 
  "max": 9226, 
  "▁横": 9227, 
  "ノーカラーロングコート": 9228, 
  "▁メキシカン": 9229, 
  "▁104310": 9230, 
  "▁Emma": 9231, 
  "▁丹寧": 9232, 
  "▁Ryd": 9233, 
  "軍風": 9234, 
  "▁Petal": 9235, 
  "▁sport": 9236, 
  "▁ガールズフォト": 9237, 
  "▁ペア": 9238, 
  "AJ": 9239, 
  "ワンタック": 9240, 
  "▁ポンチョ": 9241, 
  "プリペラ": 9242, 
  "▁モヘヤ": 9243, 
  "▁トレーニング": 9244, 
  "70】": 9245, 
  "▁ジム": 9246, 
  "シフォンシャツ": 9247, 
  "▁Grafik": 9248, 
  "fe": 9249, 
  "英字印花": 9250, 
  "タックフライス": 9251, 
  "フードプルオーバー": 9252, 
  "ダメージデニムパンツ": 9253, 
  "フェス": 9254, 
  "牛仔短裙": 9255, 
  "▁Jeanskleid": 9256, 
  "バン": 9257, 
  "▁リヨセルコットン": 9258, 
  "マリンパンツ": 9259, 
  "▁ドルマンニット": 9260, 
  "フォーマル": 9261, 
  "Stripe": 9262, 
  "▁ジャ": 9263, 
  "04】": 9264, 
  "よ": 9265, 
  "▁Claudia": 9266, 
  "▁SILVER": 9267, 
  "▁JW": 9268, 
  "吊": 9269, 
  "Standard": 9270, 
  "▁ダメージ加工": 9271, 
  "▁デニムワイド": 9272, 
  "▁MVS": 9273, 
  "キャミソールワンピース": 9274, 
  "束口": 9275, 
  "31】": 9276, 
  "tyn": 9277, 
  "62】": 9278, 
  "ライオンシシュウ": 9279, 
  "リップルボーダー": 9280, 
  "kawow": 9281, 
  "▁Daze": 9282, 
  "palm": 9283, 
  "▁ワッフル編み": 9284, 
  "コットンジャージ": 9285, 
  "鈕扣": 9286, 
  "ウエストリボンワンピース": 9287, 
  "ひ": 9288, 
  "▁pudrowy": 9289, 
  "NZA": 9290, 
  "▁XX": 9291, 
  "▁裏毛裏起毛": 9292, 
  "▁ペイズリープリント": 9293, 
  "▁ダンガリーシャツ": 9294, 
  "COO": 9295, 
  "梨地": 9296, 
  "キナガシ": 9297, 
  "▁Graduate": 9298, 
  "▁505&": 9299, 
  "▁チェックスカート": 9300, 
  "セットアップ風": 9301, 
  "▁frill": 9302, 
  "カットカーディガン": 9303, 
  "▁ハイツイストコットン": 9304, 
  "デニムミニスカート": 9305, 
  "ジャンパー": 9306, 
  "ドレーププルオーバー": 9307, 
  "フルレングスパンツ": 9308, 
  "▁Cru": 9309, 
  "lez": 9310, 
  "棒球外套": 9311, 
  "▁Extr": 9312, 
  "ドルマントップス": 9313, 
  "マリア": 9314, 
  "袖シフォン": 9315, 
  "▁アビ": 9316, 
  "スモッキング": 9317, 
  "ANT": 9318, 
  "▁ランダムプリーツ": 9319, 
  "ピース": 9320, 
  "ジャンプスーツ": 9321, 
  "▁110": 9322, 
  "接触冷感": 9323, 
  "民族風": 9324, 
  "▁Libr": 9325, 
  "オリジナル": 9326, 
  "通印花": 9327, 
  "lor": 9328, 
  "▁バックフリル": 9329, 
  "巴": 9330, 
  "▁CUSTO": 9331, 
  "▁カットレース": 9332, 
  "シャドー": 9333, 
  "裾フレア": 9334, 
  "▁tiger": 9335, 
  "貼袋": 9336, 
  "コントラスト": 9337, 
  "▁applique": 9338, 
  "ikati": 9339, 
  "▁Gigi": 9340, 
  "▁VANS": 9341, 
  "寬鬆短袖": 9342, 
  "▁Dust": 9343, 
  "▁チュニックワンピース": 9344, 
  "▁face": 9345, 
  "▁コットンローン": 9346, 
  "▁レースボーダー": 9347, 
  "▁NYLON": 9348, 
  "▁Helen": 9349, 
  "絨": 9350, 
  "▁cekinowa": 9351, 
  "ardigan": 9352, 
  "にも": 9353, 
  "▁Nav": 9354, 
  "がら": 9355, 
  "INDIGO": 9356, 
  "▁メロー": 9357, 
  "フリンジ付": 9358, 
  "▁jan": 9359, 
  "▁sister": 9360, 
  "▁バード": 9361, 
  "zen": 9362, 
  "▁Dropped": 9363, 
  "NJA": 9364, 
  "▁Pur": 9365, 
  "▁チャンピオン": 9366, 
  "59】": 9367, 
  "ニットソーワンピース": 9368, 
  "ストレッチポンチ": 9369, 
  "▁LaLa": 9370, 
  "MI": 9371, 
  "▁ダーク": 9372, 
  "ポンチスカート": 9373, 
  "▁Sur": 9374, 
  "▁Dk": 9375, 
  "精": 9376, 
  "▁ボリュームネック": 9377, 
  "九分丈": 9378, 
  "消しプリーツ": 9379, 
  "▁ハイカウント": 9380, 
  "▁アクリル": 9381, 
  "▁Outline": 9382, 
  "▁Need": 9383, 
  "▁ドビーチェック": 9384, 
  "▁GS": 9385, 
  "花柄刺繍": 9386, 
  "rega": 9387, 
  "Ehwg": 9388, 
  "▁カッティング": 9389, 
  "ベルベット": 9390, 
  "▁Discover": 9391, 
  "▁Sparkl": 9392, 
  "ラッピング": 9393, 
  "ベーシックカーディガン": 9394, 
  "▁Pott": 9395, 
  "▁Bouquet": 9396, 
  "▁asymetrycznym": 9397, 
  "▁コットンニット": 9398, 
  "▁BOA": 9399, 
  "花柄シフォン": 9400, 
  "▁Boho": 9401, 
  "▁ZA": 9402, 
  "抜け衿": 9403, 
  "▁Cla": 9404, 
  "▁ANIMAL": 9405, 
  "▁Coo": 9406, 
  "▁MISSMIS": 9407, 
  "成": 9408, 
  "▁Country": 9409, 
  "▁編み上げ": 9410, 
  "ビジュー釦": 9411, 
  "▁Fold": 9412, 
  "▁フリルデザイン": 9413, 
  "▁32": 9414, 
  "▁Cal": 9415, 
  "rogg": 9416, 
  "バラ": 9417, 
  "▁シフォン切り替え": 9418, 
  "Deconstructed": 9419, 
  "▁*2": 9420, 
  "ジーパン": 9421, 
  "YNE": 9422, 
  "▁Ava": 9423, 
  "ストレートフィット": 9424, 
  "▁AIR": 9425, 
  "gew": 9426, 
  "トラ": 9427, 
  "▁CHE": 9428, 
  "▁ピ": 9429, 
  "▁迦績": 9430, 
  "レースアップブラウス": 9431, 
  "▁Rhinestone": 9432, 
  "▁Gesteppte": 9433, 
  "▁ロープ": 9434, 
  "ering": 9435, 
  "シアーチェック": 9436, 
  "▁GEORGE": 9437, 
  "▁Bindegurtel": 9438, 
  "▁コール天": 9439, 
  "Vive": 9440, 
  "▁Blok": 9441, 
  "フレ": 9442, 
  "カレッジロゴ": 9443, 
  "yme": 9444, 
  "▁ロービング": 9445, 
  "▁カギ針": 9446, 
  "ニットジレ": 9447, 
  "▁SL": 9448, 
  "ボーダーブラウス": 9449, 
  "eft": 9450, 
  "合わせ": 9451, 
  "▁ピグメントワイド": 9452, 
  "アンバランス": 9453, 
  "▁Displa": 9454, 
  "▁ヘアリー": 9455, 
  "▁niebieski": 9456, 
  "▁BANDANA": 9457, 
  "シアーボーダー": 9458, 
  "▁Spray": 9459, 
  "▁袖デザイン": 9460, 
  "ジップカーディガン": 9461, 
  "▁リブニットプルオーバー": 9462, 
  "enfre": 9463, 
  "▁Rinse": 9464, 
  "HOUSTON": 9465, 
  "▁桃紅": 9466, 
  "▁ウエストリブ": 9467, 
  "ワークパンツ": 9468, 
  "▁dekolcie": 9469, 
  "フレンチスリーブシャツ": 9470, 
  "ASHI": 9471, 
  "▁Balcon": 9472, 
  "シャギープルオーバー": 9473, 
  "▁Cardi": 9474, 
  "キリッパ": 9475, 
  "COAT": 9476, 
  "▁Sienna": 9477, 
  "▁デザイン袖": 9478, 
  "▁Ana": 9479, 
  "▁Balloon": 9480, 
  "マキシ丈ワンピース": 9481, 
  "▁Gaucho": 9482, 
  "▁Jockey": 9483, 
  "▁ドゥ": 9484, 
  "▁Getailleerde": 9485, 
  "▁Caban": 9486, 
  "▁Statement": 9487, 
  "▁Spitzentop": 9488, 
  "▁flex": 9489, 
  "▁Agil": 9490, 
  "BERRY": 9491, 
  "SKIN": 9492, 
  "▁SWT": 9493, 
  "▁ポンポン": 9494, 
  "チルデンニット": 9495, 
  "SURF": 9496, 
  "サスツキ": 9497, 
  "dou": 9498, 
  "び": 9499, 
  "トリ": 9500, 
  "▁CHEST": 9501, 
  "▁Bate": 9502, 
  "▁ワークパンツ": 9503, 
  "▁Are": 9504, 
  "▁CASHMERE": 9505, 
  "DOORS": 9506, 
  "ふわふわ": 9507, 
  "▁ミセ": 9508, 
  "▁Fro": 9509, 
  "ドローストリング": 9510, 
  "bleach": 9511, 
  "USO": 9512, 
  "SON": 9513, 
  "▁Outfit": 9514, 
  "ジオメ": 9515, 
  "刺しゅうシャツ": 9516, 
  "he": 9517, 
  "▁Elegant": 9518, 
  "do": 9519, 
  "ロングダッフルコート": 9520, 
  "ニットビスチェ": 9521, 
  "クマ": 9522, 
  "バックシャンブラウス": 9523, 
  "▁Vision": 9524, 
  "▁hood": 9525, 
  "DENTON": 9526, 
  "▁Dungaree": 9527, 
  "▁linen": 9528, 
  "ope": 9529, 
  "▁Hunter": 9530, 
  "▁Mizu": 9531, 
  "セミ": 9532, 
  "写": 9533, 
  "▁CTN": 9534, 
  "コードレース": 9535, 
  "▁Spitzeneinsatz": 9536, 
  "▁Linea": 9537, 
  "ストレッチカットソー": 9538, 
  "orth": 9539, 
  "▁Stones": 9540, 
  "▁ストライプ切替": 9541, 
  "▁Eleganck": 9542, 
  "NIA": 9543, 
  "パウダー": 9544, 
  "イズ": 9545, 
  "▁デ": 9546, 
  "▁grafische": 9547, 
  "デイリー": 9548, 
  "ラインロゴ": 9549, 
  "レースドッキング": 9550, 
  "▁GRAPHIC": 9551, 
  "▁8/42": 9552, 
  "452": 9553, 
  "ps": 9554, 
  "▁ダ": 9555, 
  "チョ": 9556, 
  "亮片": 9557, 
  "ボー": 9558, 
  ")14": 9559, 
  "率性": 9560, 
  "▁plai": 9561, 
  "▁もくもく": 9562, 
  "▁モヘアタッチ": 9563, 
  "ーズ": 9564, 
  "▁Can": 9565, 
  "▁RAYON": 9566, 
  "▁Bili": 9567, 
  "▁Bl": 9568, 
  "▁Adventures": 9569, 
  "EE": 9570, 
  "ckstead": 9571, 
  "AME": 9572, 
  "タンブラー": 9573, 
  "tex": 9574, 
  "▁ロングジレ": 9575, 
  "使える": 9576, 
  "▁Elegante": 9577, 
  "Gel": 9578, 
  "81]": 9579, 
  "JohnEshaya": 9580, 
  "▁フロントギャザー": 9581, 
  "一": 9582, 
  "タックデザインカットソー": 9583, 
  "附": 9584, 
  "▁36": 9585, 
  "スキニ": 9586, 
  "ブラウン": 9587, 
  "EW": 9588, 
  "レングス": 9589, 
  "バスク": 9590, 
  "▁Quarter": 9591, 
  "極": 9592, 
  "▁Eclipse": 9593, 
  "ROSE": 9594, 
  "▁layer": 9595, 
  "▁SMOCK": 9596, 
  "jumpsuit": 9597, 
  "市": 9598, 
  "▁Ca": 9599, 
  "▁Spectrum": 9600, 
  "折限定": 9601, 
  "圓領短袖上衣": 9602, 
  "▁地藏": 9603, 
  "透かし編みニット": 9604, 
  "▁ベロアリボン": 9605, 
  "oode": 9606, 
  "マンパ": 9607, 
  "天竺ニット": 9608, 
  "▁6/40": 9609, 
  "▁At": 9610, 
  "サテンブルゾン": 9611, 
  "004": 9612, 
  "ビックシルエット": 9613, 
  "キルティングブルゾン": 9614, 
  "▁SPLI": 9615, 
  "CDLS": 9616, 
  "側邊": 9617, 
  "ラインドレス": 9618, 
  "カラージャケット": 9619, 
  "レス": 9620, 
  "▁Aid": 9621, 
  "▁Maus": 9622, 
  "▁WARHOL": 9623, 
  "▁WAISTCOAT": 9624, 
  "troke": 9625, 
  "MART": 9626, 
  "ネックデザインカットソー": 9627, 
  "tone": 9628, 
  "▁multi": 9629, 
  "▁パンチングレース": 9630, 
  "ボンディングコート": 9631, 
  "▁Nightshirt": 9632, 
  "ABLE": 9633, 
  "od": 9634, 
  "ブロークン": 9635, 
  "原": 9636, 
  "struktur": 9637, 
  "▁Buckle": 9638, 
  "▁Borg": 9639, 
  "キュ": 9640, 
  "anage": 9641, 
  "Jeans": 9642, 
  "Back": 9643, 
  "▁Dunkelbeige": 9644, 
  "▁綿ナイロン": 9645, 
  "ixed": 9646, 
  "ラフ": 9647, 
  "▁テーラー": 9648, 
  "リボンスリーブブラウス": 9649, 
  "ウエア": 9650, 
  "LP": 9651, 
  "▁ramionach": 9652, 
  "▁ポンチボーダー": 9653, 
  "▁レオパード柄": 9654, 
  "▁編地": 9655, 
  "ung": 9656, 
  "eta": 9657, 
  "▁Beschichtete": 9658, 
  "▁タック天竺": 9659, 
  "スパンコール": 9660, 
  "プラ": 9661, 
  "▁Huf": 9662, 
  "▁ドローストリング": 9663, 
  "▁LEO": 9664, 
  "▁サルエルテーパード": 9665, 
  "DJ": 9666, 
  "▁strap": 9667, 
  "▁Dove": 9668, 
  "▁チュールレイヤード": 9669, 
  "▁541": 9670, 
  "コーデュロイスカート": 9671, 
  "▁Flur": 9672, 
  "號": 9673, 
  "ギャザ": 9674, 
  "▁袖切替": 9675, 
  "ock": 9676, 
  "ベロアトップス": 9677, 
  "▁Dopasowana": 9678, 
  "▁Basl": 9679, 
  "▁Trainer": 9680, 
  "Co": 9681, 
  "▁round": 9682, 
  "ark": 9683, 
  "▁Bon": 9684, 
  "▁VN": 9685, 
  "▁Peace": 9686, 
  "ネックハイゲージニット": 9687, 
  "▁袖チュール": 9688, 
  "▁ダンボールニット": 9689, 
  "GP": 9690, 
  "▁alca": 9691, 
  "▁ビジュ付": 9692, 
  "機": 9693, 
  "▁Jim": 9694, 
  "▁アンバランスヘム": 9695, 
  "▁ディ": 9696, 
  "▁ナロー": 9697, 
  "圧縮": 9698, 
  "幾何柄": 9699, 
  "フルジップパーカー": 9700, 
  "▁モールニット": 9701, 
  "iela": 9702, 
  "Blue": 9703, 
  "▁大花柄": 9704, 
  "▁Lipp": 9705, 
  "▁WARS": 9706, 
  "▁rosa": 9707, 
  "後リボン": 9708, 
  "NNEL": 9709, 
  "51】": 9710, 
  "▁Botanical": 9711, 
  "▁Mirror": 9712, 
  "ハイツイスト": 9713, 
  "3/2": 9714, 
  "▁イ": 9715, 
  "▁Anglaise": 9716, 
  "▁Div": 9717, 
  "▁フォークロア": 9718, 
  "RINKLE": 9719, 
  "▁Nepp": 9720, 
  "▁Evo": 9721, 
  "セミタイトスカート": 9722, 
  "▁Youth": 9723, 
  "▁スウェードライク": 9724, 
  "套裝": 9725, 
  "べ": 9726, 
  "クルースウェット": 9727, 
  "▁ニットビスチェ": 9728, 
  "▁セミ": 9729, 
  "エプロン": 9730, 
  "▁ジョ": 9731, 
  "スソレース": 9732, 
  "▁Robin": 9733, 
  "ロングタンク": 9734, 
  "▁バックギャザー": 9735, 
  "バイヤス": 9736, 
  "幾何学柄": 9737, 
  "▁リブハイネック": 9738, 
  "TIME": 9739, 
  "▁シャンタン": 9740, 
  "基本": 9741, 
  "▁Ga": 9742, 
  "シンプルニット": 9743, 
  "▁ANAPANAP": 9744, 
  "BAMBOO": 9745, 
  "漆": 9746, 
  "71】": 9747, 
  "▁EM": 9748, 
  "▁CK": 9749, 
  "ディガン": 9750, 
  "▁地柄": 9751, 
  "変": 9752, 
  "▁メッシュ切り替え": 9753, 
  "▁Strike": 9754, 
  "▁Ra": 9755, 
  "▁ポプリン": 9756, 
  "ショールカーディ": 9757, 
  "▁ストライプニット": 9758, 
  "MICKEY": 9759, 
  "▁衿ぐり": 9760, 
  "▁Czerwona": 9761, 
  "ウエストマーク": 9762, 
  "ker": 9763, 
  "▁Senfgelb": 9764, 
  "▁Longue": 9765, 
  "▁センタープレステーパードパンツ": 9766, 
  "▁ボーダープリント": 9767, 
  "▁Jasmine": 9768, 
  "▁Vivian": 9769, 
  "▁Sophia": 9770, 
  "▁Kings": 9771, 
  "503": 9772, 
  "91】": 9773, 
  "▁24": 9774, 
  "▁dresowa": 9775, 
  "ノースリー": 9776, 
  "▁Hol": 9777, 
  "雪花": 9778, 
  "▁SUNDAY": 9779, 
  "洗濯可能": 9780, 
  "▁App": 9781, 
  "ダイヤ柄": 9782, 
  "nina": 9783, 
  "▁リーナ": 9784, 
  "▁Days": 9785, 
  "▁Jegging": 9786, 
  "BF": 9787, 
  "▁Customized": 9788, 
  "78】": 9789, 
  "▁1001": 9790, 
  "6】-": 9791, 
  "▁ペンシルスカート": 9792, 
  "▁Sasha": 9793, 
  "▁Strukturs": 9794, 
  "50】": 9795, 
  "フィ": 9796, 
  "格子襯衫": 9797, 
  "vi": 9798, 
  "ーム": 9799, 
  "▁小紋柄": 9800, 
  "▁Reg": 9801, 
  "skin": 9802, 
  "▁Montan": 9803, 
  "ミディースカート": 9804, 
  "高": 9805, 
  "▁綿モダール": 9806, 
  "▁TRIANGLE": 9807, 
  "▁イン": 9808, 
  "▁ベア天": 9809, 
  "カンベルト付き": 9810, 
  "08】": 9811, 
  "nia": 9812, 
  "雙口袋": 9813, 
  "▁エリ": 9814, 
  "64】": 9815, 
  "▁スウェットパーカー": 9816, 
  "▁サン": 9817, 
  "▁Mattgr": 9818, 
  "▁mocka": 9819, 
  "▁LAcg": 9820, 
  "▁BLOOM": 9821, 
  "▁dragkedj": 9822, 
  "▁センタープレスパンツ": 9823, 
  "LIN": 9824, 
  "▁オープンカラーシャツ": 9825, 
  "▁pasy": 9826, 
  "ツイルジャケット": 9827, 
  "▁ミニスカート": 9828, 
  "ラッシュガード": 9829, 
  "NQS": 9830, 
  "▁LADIES": 9831, 
  "67】": 9832, 
  "▁Stay": 9833, 
  "とろみブラウス": 9834, 
  "▁Crazy": 9835, 
  "▁ブーツカット": 9836, 
  "▁素面": 9837, 
  "セン": 9838, 
  "▁grau": 9839, 
  "▁Nep": 9840, 
  "▁Hangsel": 9841, 
  "RN": 9842, 
  "膝": 9843, 
  "CAMP": 9844, 
  "落肩": 9845, 
  "LAN": 9846, 
  "▁Sting": 9847, 
  "▁Grove": 9848, 
  "ew": 9849, 
  "velvet": 9850, 
  "overall": 9851, 
  "CHECK": 9852, 
  "》《": 9853, 
  "▁スエードライク": 9854, 
  "▁360": 9855, 
  "▁ウエストリボンワンピース": 9856, 
  "▁格紋": 9857, 
  "▁Katr": 9858, 
  "▁Nagaba": 9859, 
  "483": 9860, 
  "リブニットソー": 9861, 
  "▁胸ポケット付き": 9862, 
  "▁レジメンタルストライプ": 9863, 
  "veni": 9864, 
  "▁フィットネス": 9865, 
  "▁バックスピンドル": 9866, 
  "▁WW": 9867, 
  "エリツキ": 9868, 
  "▁trikatopp": 9869, 
  "cm": 9870, 
  "105": 9871, 
  "デニムオーバーオール": 9872, 
  "▁TYPE": 9873, 
  "▁袖フリンジ": 9874, 
  "▁微光沢": 9875, 
  "▁rot": 9876, 
  "サス": 9877, 
  "PPT": 9878, 
  "▁Nostalgi": 9879, 
  "▁ガーリー": 9880, 
  "MOOK": 9881, 
  "▁STARTER": 9882, 
  "skie": 9883, 
  "COLOR": 9884, 
  "▁Zweiteiler": 9885, 
  "ボトムス": 9886, 
  "331": 9887, 
  "▁ストレッチサテン": 9888, 
  "ミリタリーシャツジャケット": 9889, 
  "sz": 9890, 
  "花邊": 9891, 
  "赤": 9892, 
  "▁Bralet": 9893, 
  "▁Marg": 9894, 
  "form": 9895, 
  "▁Monster": 9896, 
  "▁アニマル": 9897, 
  "Regular": 9898, 
  "▁Cassi": 9899, 
  "▁Dis": 9900, 
  "テーパー": 9901, 
  "▁アロハ柄": 9902, 
  "▁ミル起毛": 9903, 
  "▁Th": 9904, 
  "心": 9905, 
  "ciss": 9906, 
  "▁Szara": 9907, 
  "ift": 9908, 
  "98】": 9909, 
  "▁Boa": 9910, 
  "LYN": 9911, 
  "horn": 9912, 
  "▁細ケーブル": 9913, 
  "▁love": 9914, 
  "▁Rag": 9915, 
  "ail": 9916, 
  "▁ウエストリボンブラウス": 9917, 
  "テレコタンク": 9918, 
  "▁刺しゅうレース": 9919, 
  "▁banda": 9920, 
  "▁丸衿": 9921, 
  "ローンシャツ": 9922, 
  "配色切替": 9923, 
  "▁Well": 9924, 
  "ペグトップパンツ": 9925, 
  "▁pull": 9926, 
  "▁チュール重ね": 9927, 
  "シフォン切替": 9928, 
  "▁Boys": 9929, 
  "シフォンスカート": 9930, 
  "布帛コンビ": 9931, 
  "14】": 9932, 
  "▁素色": 9933, 
  "▁ダブルストライプ": 9934, 
  "▁Panther": 9935, 
  "ingham": 9936, 
  "48】": 9937, 
  "▁CHIC": 9938, 
  "▁Law": 9939, 
  "▁ホワイトデニム": 9940, 
  "tt": 9941, 
  "▁GEO": 9942, 
  "▁素材切り替え": 9943, 
  "外": 9944, 
  "▁ショップコート": 9945, 
  "▁アニマルプリント": 9946, 
  "▁Lillian": 9947, 
  "フィッシュテールスカート": 9948, 
  "▁裾シフォン": 9949, 
  "▁チノパンツ": 9950, 
  "ビット": 9951, 
  "GI": 9952, 
  "▁Biebe": 9953, 
  "714": 9954, 
  "▁台形": 9955, 
  "▁WASH": 9956, 
  "473": 9957, 
  "▁ラッフル袖": 9958, 
  "▁Haut": 9959, 
  "▁ドレスシャツ": 9960, 
  "▁Cache": 9961, 
  "colors": 9962, 
  "▁鋪棉外套": 9963, 
  "ボリューム袖ニット": 9964, 
  "プルオー": 9965, 
  "▁モヘア混": 9966, 
  "ペザント": 9967, 
  "シェル": 9968, 
  "▁ウールメルトン": 9969, 
  "▁palm": 9970, 
  "肩レース": 9971, 
  "▁スリムパンツ": 9972, 
  "▁ボリュームカラー": 9973, 
  "▁Dune": 9974, 
  "透": 9975, 
  "▁タイ": 9976, 
  "Cola": 9977, 
  "25】": 9978, 
  "▁Runner": 9979, 
  "slip": 9980, 
  "▁ウエストリボン付き": 9981, 
  "▁Soul": 9982, 
  "ining": 9983, 
  "平": 9984, 
  "スタンドジャケット": 9985, 
  "ナイロンジャケット": 9986, 
  "STORY": 9987, 
  "ガールプリント": 9988, 
  "抽繩連帽": 9989, 
  "▁Reta": 9990, 
  "▁ドビーデニム": 9991, 
  "プロ": 9992, 
  "26】": 9993, 
  "▁Coloured": 9994, 
  "▁Mill": 9995, 
  "▁estampado": 9996, 
  "▁ジュエル": 9997, 
  "ラメ混ニット": 9998, 
  "ミニウラケ": 9999, 
  "▁ハイネックリブ": 10000, 
  "▁WESTERN": 10001, 
  "479": 10002, 
  "▁comprid": 10003, 
  "層次": 10004, 
  "▁JZ": 10005, 
  "▁SCOTCH": 10006, 
  "54】": 10007, 
  "ライナー": 10008, 
  "́": 10009, 
  "▁RESTA": 10010, 
  "▁SHIN": 10011, 
  "▁SWING": 10012, 
  "▁FULLSUIT": 10013, 
  "19】": 10014, 
  "ノット": 10015, 
  "売": 10016, 
  "▁Dunkelgrun": 10017, 
  "シャツドレス": 10018, 
  "▁ライナー付": 10019, 
  "▁2301": 10020, 
  "▁Chantelle": 10021, 
  "スウェットショーツ": 10022, 
  "▁yellow": 10023, 
  "スポーツ": 10024, 
  "▁デザインスリーブ": 10025, 
  "スラッシュ": 10026, 
  "rta": 10027, 
  "ライトジャケット": 10028, 
  "アシメヘム": 10029, 
  "プリーツガウチョ": 10030, 
  "320": 10031, 
  "icht": 10032, 
  "▁Alde": 10033, 
  "81】": 10034, 
  "AE": 10035, 
  "メン": 10036, 
  "ira": 10037, 
  "▁SCOOP": 10038, 
  "▁bad": 10039, 
  "ネックレス": 10040, 
  "バックジップ": 10041, 
  "74】": 10042, 
  "ネオ": 10043, 
  "▁ベロアワイドパンツ": 10044, 
  "淺": 10045, 
  "ハッピー": 10046, 
  "▁コットンウール": 10047, 
  "▁ダンボール": 10048, 
  "▁ナチュラルストレッチ": 10049, 
  "▁Jour": 10050, 
  "Sidney": 10051, 
  "63】": 10052, 
  "▁Selma": 10053, 
  "▁ツイルストレッチ": 10054, 
  "▁wzor": 10055, 
  "ペプラムニット": 10056, 
  "メガネ": 10057, 
  "▁Licht": 10058, 
  "88】": 10059, 
  "レイヤードニット": 10060, 
  "ショールカラーコート": 10061, 
  "▁FAL": 10062, 
  "▁テンジク": 10063, 
  "EXTRA": 10064, 
  "CVC": 10065, 
  "▁METALLIC": 10066, 
  "STRIPE": 10067, 
  "Palmen": 10068, 
  "刺繍ガウン": 10069, 
  "▁Stern": 10070, 
  "▁LOOP": 10071, 
  "エアー": 10072, 
  "パワショル": 10073, 
  "巻き風": 10074, 
  "段染め": 10075, 
  "anga": 10076, 
  "ドルマンスリーブニット": 10077, 
  "▁Dean": 10078, 
  "BRAT": 10079, 
  "▁Lips": 10080, 
  "ハイウエストショートパンツ": 10081, 
  "▁Vent": 10082, 
  "ILA": 10083, 
  "▁Diagonal": 10084, 
  "▁damski": 10085, 
  "well": 10086, 
  "ELE": 10087, 
  "oop": 10088, 
  "マウンテン": 10089, 
  "蝴蝶結": 10090, 
  "VIS": 10091, 
  "▁DES": 10092, 
  "▁Gem": 10093, 
  "裾ゴム": 10094, 
  "風スカート": 10095, 
  "ral": 10096, 
  "TTL": 10097, 
  "tes": 10098, 
  "57】": 10099, 
  "▁ALOHA": 10100, 
  "▁Spitzenborte": 10101, 
  "▁Cam": 10102, 
  "可愛": 10103, 
  "▁breite": 10104, 
  "▁Iris": 10105, 
  "▁蕾絲": 10106, 
  "IZO": 10107, 
  "▁Mullvad": 10108, 
  "Lady": 10109, 
  "圓領針織毛衣": 10110, 
  "▁Ry": 10111, 
  "anna": 10112, 
  "nak": 10113, 
  "刺繍シャツ": 10114, 
  "ボンバージャケット": 10115, 
  "▁ハーフミラノ": 10116, 
  "大衣": 10117, 
  "▁Carla": 10118, 
  "▁モッサ": 10119, 
  "オーバーサイズシャツ": 10120, 
  "線衫": 10121, 
  "▁前タック": 10122, 
  "サロペットパンツ": 10123, 
  "ソデレース": 10124, 
  "▁プリマ": 10125, 
  "▁Embellishment": 10126, 
  "▁Stret": 10127, 
  "▁Layers": 10128, 
  "連": 10129, 
  "グラス": 10130, 
  "▁シースルーボーダー": 10131, 
  "▁EDOKATSU": 10132, 
  "▁Champagne": 10133, 
  "era": 10134, 
  "ソウガラ": 10135, 
  "フードトッパー": 10136, 
  "▁Leinentunika": 10137, 
  "▁Hui": 10138, 
  "▁SD": 10139, 
  "ston": 10140, 
  "羽": 10141, 
  "▁Argyle": 10142, 
  "▁マシュマロ": 10143, 
  "▁Weatherwear": 10144, 
  "スキスカ": 10145, 
  "▁kokard": 10146, 
  "▁military": 10147, 
  "▁Char": 10148, 
  "PSON": 10149, 
  "▁Ferr": 10150, 
  "▁TROPIC": 10151, 
  "▁kopertowa": 10152, 
  "▁単色": 10153, 
  "lila": 10154, 
  "kowa": 10155, 
  "▁EYE": 10156, 
  "マエアキ": 10157, 
  "▁Koralle": 10158, 
  "花柄フレアスカート": 10159, 
  "クロプド": 10160, 
  "モクロディ": 10161, 
  "▁Raf": 10162, 
  "▁度詰天竺": 10163, 
  "▁padd": 10164, 
  "トリム": 10165, 
  "▁Revers": 10166, 
  "リヨセル混": 10167, 
  "+2198>8/14-8/2": 10168, 
  "ウラ": 10169, 
  "ミディ丈フレアスカート": 10170, 
  "aki": 10171, 
  "AKE": 10172, 
  "刺繍チュニック": 10173, 
  "配色ワンピース": 10174, 
  "▁細ボーダー": 10175, 
  "袖タック": 10176, 
  "TZ": 10177, 
  "▁27": 10178, 
  "ネイ": 10179, 
  "gray": 10180, 
  "KO": 10181, 
  "▁ビジューネック": 10182, 
  "洗": 10183, 
  "Healthknit": 10184, 
  "ネックリブ": 10185, 
  "潮流嚴選素面": 10186, 
  "▁IRIS": 10187, 
  "▁センター": 10188, 
  "▁Board": 10189, 
  "▁Getailleerd": 10190, 
  "rmel": 10191, 
  "メランジニット": 10192, 
  "upersoft": 10193, 
  "▁Braun": 10194, 
  "サイドレース": 10195, 
  "▁Su": 10196, 
  "シフォンレイヤード": 10197, 
  "オフタートルプルオーバー": 10198, 
  "クレール": 10199, 
  "iem": 10200, 
  "モチーフプリント": 10201, 
  "▁カップル": 10202, 
  "▁Charlotte": 10203, 
  "▁Pins": 10204, 
  "▁Mot": 10205, 
  "▁リブ切り替え": 10206, 
  "WIDE": 10207, 
  "彩色": 10208, 
  "▁Isla": 10209, 
  "▁シアーギンガム": 10210, 
  "▁【1200": 10211, 
  "▁Midlayer": 10212, 
  "LING": 10213, 
  "▁Skateboard": 10214, 
  "MIXED": 10215, 
  "▁ピグメント天竺": 10216, 
  "ラップミニスカート": 10217, 
  "▁ナローストライプ": 10218, 
  "▁コットンレーヨン": 10219, 
  "86】": 10220, 
  "TRA": 10221, 
  "▁配色切替": 10222, 
  "▁Harper": 10223, 
  "▁パターンメッシュ": 10224, 
  "▁アメリカ": 10225, 
  "ロングトレンチ": 10226, 
  "▁Madrasruit": 10227, 
  "rix": 10228, 
  "フルーツ": 10229, 
  "深藍": 10230, 
  "▁ロマンティック": 10231, 
  "▁311": 10232, 
  "ERO": 10233, 
  "▁Snakeskin": 10234, 
  "▁シンプルニット": 10235, 
  "ーティング": 10236, 
  "▁Victoria": 10237, 
  "ストーン": 10238, 
  "▁Natt": 10239, 
  "▁Mirage": 10240, 
  "トル": 10241, 
  "灰": 10242, 
  "潮流嚴選迷彩": 10243, 
  "ヴィンテージサテン": 10244, 
  "▁DNM": 10245, 
  "▁SOFI": 10246, 
  "▁ビジュ": 10247, 
  "ボヘミアン": 10248, 
  "オフボディ": 10249, 
  "▁Senapsgul": 10250, 
  "ITA": 10251, 
  "▁ギザ": 10252, 
  "▁Flora": 10253, 
  "ユー": 10254, 
  "リブニットスカート": 10255, 
  "紗": 10256, 
  "【010954": 10257, 
  "フェイクファーコート": 10258, 
  "▁ゴム": 10259, 
  "▁シェットランド": 10260, 
  "二": 10261, 
  "メタル": 10262, 
  "port": 10263, 
  "▁ラフ": 10264, 
  "便利": 10265, 
  "方": 10266, 
  "ONEPIECE": 10267, 
  "▁ゴーストバスターズ": 10268, 
  "▁Waco": 10269, 
  "ストレッチブラウス": 10270, 
  "KIT": 10271, 
  "▁合皮ライダース": 10272, 
  "邊": 10273, 
  "イタリアンカラーシャツ": 10274, 
  "Lab": 10275, 
  "ホワイトデニムパンツ": 10276, 
  "カッタウェイ": 10277, 
  "eb": 10278, 
  "▁Special": 10279, 
  "▁knytb": 10280, 
  "30】": 10281, 
  "17-": 10282, 
  "レイヤード風ニット": 10283, 
  "350★": 10284, 
  "ショートダッフル": 10285, 
  "▁Holy": 10286, 
  "▁Si": 10287, 
  "ner": 10288, 
  "▁Span": 10289, 
  "ボタン付き": 10290, 
  "▁幾何学": 10291, 
  "▁ボートネックニット": 10292, 
  "▁フランネル": 10293, 
  "柔らか": 10294, 
  "フリル袖ブラウス": 10295, 
  "98": 10296, 
  "▁Sneaker": 10297, 
  "ヘムスカート": 10298, 
  "ウエスタン": 10299, 
  "▁AjustAc": 10300, 
  "028": 10301, 
  "▁Gi": 10302, 
  "▁cutout": 10303, 
  "小立領": 10304, 
  "カラースキニー": 10305, 
  "カノコポロシャツ": 10306, 
  "▁Peanuts": 10307, 
  "▁Nar": 10308, 
  "サッシュ": 10309, 
  "nyc": 10310, 
  "▁タックフレアー": 10311, 
  "▁スカーフ付き": 10312, 
  "スタンドフリル": 10313, 
  "▁ルームウェア": 10314, 
  "▁襯衫": 10315, 
  "▁Lattice": 10316, 
  "ライナー付きトレンチコート": 10317, 
  "▁リバーレース": 10318, 
  "された": 10319, 
  "▁DELI": 10320, 
  "3/4": 10321, 
  "▁grafit": 10322, 
  "ETTE": 10323, 
  "▁Fa": 10324, 
  "ロールネック": 10325, 
  "▁Lumin": 10326, 
  "カンベルト付": 10327, 
  "部": 10328, 
  "▁Plissee": 10329, 
  "asm": 10330, 
  "▁Pk": 10331, 
  "フレアドレス": 10332, 
  "use": 10333, 
  "ACK": 10334, 
  "チュールドッキングワンピース": 10335, 
  "レット": 10336, 
  "▁Ama": 10337, 
  "▁Mila": 10338, 
  "デニムショーツ": 10339, 
  "ブーツカットデニムパンツ": 10340, 
  "BEL": 10341, 
  "▁MILANO": 10342, 
  "elo": 10343, 
  "ミモレ丈フレアスカート": 10344, 
  "プリン": 10345, 
  "▁mA": 10346, 
  "▁dark": 10347, 
  "cale": 10348, 
  "カップイン": 10349, 
  "『": 10350, 
  "▁Tomato": 10351, 
  "點": 10352, 
  "graffiti": 10353, 
  "▁個性": 10354, 
  "tic": 10355, 
  "▁Batt": 10356, 
  "ギャザープルオーバー": 10357, 
  "ego": 10358, 
  "リボントップス": 10359, 
  "ラメボーダー": 10360, 
  "uch": 10361, 
  "デニムライク": 10362, 
  "97】": 10363, 
  "UDDW": 10364, 
  "▁Infinity": 10365, 
  "▁接触冷感": 10366, 
  "▁テールカット": 10367, 
  "▁優雅": 10368, 
  "フィールドコート": 10369, 
  "USTY": 10370, 
  "▁花柄シフォン": 10371, 
  "▁チドリ": 10372, 
  "95】": 10373, 
  "▁Flap": 10374, 
  "ぶ": 10375, 
  "gg": 10376, 
  "▁ロンドンストライプ": 10377, 
  "ライトブルー": 10378, 
  "海灘": 10379, 
  "▁Xen": 10380, 
  "▁ラムレザー": 10381, 
  "Detail": 10382, 
  "▁PLAY": 10383, 
  "shan": 10384, 
  "トン": 10385, 
  "▁Tiulowa": 10386, 
  "▁トロミ": 10387, 
  "▁Bek": 10388, 
  "スリムジーンズ": 10389, 
  "▁スタープリント": 10390, 
  "▁DFT": 10391, 
  "▁SIZE": 10392, 
  "ぺプラムブラウス": 10393, 
  "SZ": 10394, 
  "香": 10395, 
  "飾り": 10396, 
  "▁Head": 10397, 
  "ゆるピタ": 10398, 
  "ツイードコート": 10399, 
  "83】": 10400, 
  "▁100/2": 10401, 
  "▁Arctic": 10402, 
  "▁Wasserfall": 10403, 
  "usse": 10404, 
  "スビニエ": 10405, 
  "▁Dunkellila": 10406, 
  "▁プチハイ": 10407, 
  "イージースラックス": 10408, 
  "▁Horizon": 10409, 
  "腰": 10410, 
  "ington": 10411, 
  "oggi": 10412, 
  "▁suknia": 10413, 
  "簡約素面": 10414, 
  "基本款": 10415, 
  "スナップ": 10416, 
  "亞麻": 10417, 
  "飛鼠": 10418, 
  "▁shea": 10419, 
  "▁アシメタック": 10420, 
  "フライスタンクトップ": 10421, 
  "008": 10422, 
  "▁シフォンプリーツスカート": 10423, 
  "NESS": 10424, 
  "▁Cornell": 10425, 
  "丸衿": 10426, 
  "▁Plait": 10427, 
  "▁転写": 10428, 
  "VEST": 10429, 
  "ゴブラン": 10430, 
  "uipure": 10431, 
  "q": 10432, 
  "▁Winkle": 10433, 
  "innie": 10434, 
  "リゾート": 10435, 
  "▁Hole": 10436, 
  "▁culottes": 10437, 
  "▁シアーレース": 10438, 
  "52】": 10439, 
  "▁PAINTE": 10440, 
  "ワイドリブプルオーバー": 10441, 
  "リーフ柄": 10442, 
  "草": 10443, 
  "lyn": 10444, 
  "チェックネルシャツ": 10445, 
  "韓系": 10446, 
  "49】": 10447, 
  "arina": 10448, 
  "GRA": 10449, 
  "レース袖": 10450, 
  "▁Oh": 10451, 
  "▁キャンディー": 10452, 
  "▁リネンストライプ": 10453, 
  "龍": 10454, 
  "40】": 10455, 
  "▁Piano": 10456, 
  "NL": 10457, 
  "▁Vichy": 10458, 
  "030": 10459, 
  "墨": 10460, 
  "▁ROUND": 10461, 
  "soft": 10462, 
  "raffiti": 10463, 
  "▁Mos": 10464, 
  "▁SF": 10465, 
  "裾ラウンド": 10466, 
  "▁Cuffs": 10467, 
  "46】": 10468, 
  "着流し": 10469, 
  "幾何学": 10470, 
  "▁Fresh": 10471, 
  "▁ネオ": 10472, 
  "▁golf": 10473, 
  "ラッフルフリル": 10474, 
  "▁Row": 10475, 
  "bridge": 10476, 
  "LJ": 10477, 
  "▁袖あり": 10478, 
  "月": 10479, 
  "▁ハイライズ": 10480, 
  "▁カモフラージュ柄": 10481, 
  "▁Jacquardvavd": 10482, 
  "袖バルーン": 10483, 
  "FLAG": 10484, 
  "▁Dzianinow": 10485, 
  "パッカブル": 10486, 
  "streifen": 10487, 
  "tap": 10488, 
  "プリントトレーナー": 10489, 
  "▁ショートトレンチコート": 10490, 
  "袖ライン": 10491, 
  "▁マーブル": 10492, 
  "▁CHIKA": 10493, 
  "URBAN": 10494, 
  "nierzem": 10495, 
  "リブタンクトップ": 10496, 
  "▁Organza": 10497, 
  "ボーイズデニム": 10498, 
  "ティーボ": 10499, 
  "ネック刺繍": 10500, 
  "▁Capuch": 10501, 
  "▁イージーショーツ": 10502, 
  "mica": 10503, 
  "アメスリ": 10504, 
  "▁PARIS": 10505, 
  "Louisa": 10506, 
  "iso": 10507, 
  "▁フードコート": 10508, 
  "▁Batik": 10509, 
  "▁トッパー": 10510, 
  "スリットプルオーバー": 10511, 
  "cia": 10512, 
  "▁デイジー": 10513, 
  "ユ": 10514, 
  "RUE": 10515, 
  "▁ボックスロゴ": 10516, 
  "プリーツミニスカート": 10517, 
  "▁小": 10518, 
  "ローズプリント": 10519, 
  "▁ジレ": 10520, 
  "109": 10521, 
  "▁空紡糸プリント": 10522, 
  "転写プリント": 10523, 
  "ago": 10524, 
  "Harv": 10525, 
  "▁Lam": 10526, 
  "エレガント": 10527, 
  "刺繍半袖": 10528, 
  "▁Count": 10529, 
  "▁LEMON": 10530, 
  "▁水玉": 10531, 
  "130": 10532, 
  "▁CHAMBRAY": 10533, 
  "ノン": 10534, 
  "▁tweed": 10535, 
  "rin": 10536, 
  "連帽長": 10537, 
  "▁フレアースカート": 10538, 
  "Guld": 10539, 
  "▁Isador": 10540, 
  "▁Maca": 10541, 
  "ジップジャケット": 10542, 
  "亮": 10543, 
  "▁ストレートパンツ": 10544, 
  "▁コーディロイ": 10545, 
  "▁格子": 10546, 
  "ベロアワイドパンツ": 10547, 
  "ウエストリボン付": 10548, 
  "▁手書き風": 10549, 
  "Casual": 10550, 
  "+0161>": 10551, 
  "レースアップワイドパンツ": 10552, 
  "▁Filz": 10553, 
  "ソフト天竺": 10554, 
  "uki": 10555, 
  "upe": 10556, 
  "粉": 10557, 
  "▁フェイクムートンフード": 10558, 
  "圓領大學": 10559, 
  "MORE": 10560, 
  "long": 10561, 
  "▁中綿ベスト": 10562, 
  "▁和": 10563, 
  "▁ウエストリボン付": 10564, 
  "APPY": 10565, 
  "▁Inset": 10566, 
  "▁シャツテール": 10567, 
  "▁PBT": 10568, 
  "▁Sid": 10569, 
  "パーティー": 10570, 
  "潮流嚴選韓版長袖": 10571, 
  "天竺半袖": 10572, 
  "▁puchowa": 10573, 
  "▁Ali": 10574, 
  "▁モン": 10575, 
  "▁コットン天竺": 10576, 
  "▁メッシュレース": 10577, 
  "▁FLANNEL": 10578, 
  "ロングワンピ": 10579, 
  "▁Wood": 10580, 
  "▁Dar": 10581, 
  "▁Mind": 10582, 
  "Rib": 10583, 
  "▁40/": 10584, 
  "▁peplum": 10585, 
  "▁スラブ裏毛": 10586, 
  "▁bordo": 10587, 
  "サガラ刺繍": 10588, 
  "▁プリンセス": 10589, 
  "▁Keen": 10590, 
  "CHO": 10591, 
  "▁30/10": 10592, 
  "▁Merinowolle": 10593, 
  "▁Agnes": 10594, 
  "ストレッチデニムジャケット": 10595, 
  "▁Marilyn": 10596, 
  "網": 10597, 
  "アンゴラニット": 10598, 
  "切替スカート": 10599, 
  "▁バックツイスト": 10600, 
  "▁ストライプタック": 10601, 
  "▁Stroke": 10602, 
  "限定販": 10603, 
  "LIP": 10604, 
  "▁メリノウール": 10605, 
  "兩件套": 10606, 
  "▁OlivgrA": 10607, 
  "葉": 10608, 
  "プリントロング": 10609, 
  "ARD": 10610, 
  "CON": 10611, 
  ")16": 10612, 
  "ウールジャケット": 10613, 
  "ニットタンク": 10614, 
  "parka": 10615, 
  "▁マルチボーダーリブニット": 10616, 
  "ハシゴレース": 10617, 
  "▁POINTELLE": 10618, 
  "PACK": 10619, 
  "ランド": 10620, 
  "ボタニカルプリント": 10621, 
  "長袖カーデ": 10622, 
  "▁Ac": 10623, 
  "レイ": 10624, 
  "▁ふわ": 10625, 
  "▁vorne": 10626, 
  "▁Ball": 10627, 
  "▁Rad": 10628, 
  "▁ボンジュール": 10629, 
  "▁Wedg": 10630, 
  "ハイウエストタイトスカート": 10631, 
  "RANT": 10632, 
  "バックロゴ": 10633, 
  "▁CUTSEW": 10634, 
  "+1": 10635, 
  "▁ユ": 10636, 
  "▁Lost": 10637, 
  "▁Flipp": 10638, 
  "物": 10639, 
  "ise": 10640, 
  "棉衣": 10641, 
  "▁90": 10642, 
  "CLE": 10643, 
  "ネックワイド": 10644, 
  "フレアデニム": 10645, 
  "▁Strukturm": 10646, 
  "▁FS": 10647, 
  "▁Leopardm": 10648, 
  "▁lil": 10649, 
  "ライナー付": 10650, 
  "ジャカードプルオーバー": 10651, 
  "起毛プルオーバー": 10652, 
  "▁But": 10653, 
  "ゆるシャツ": 10654, 
  "▁ムラ染め": 10655, 
  "▁Corset": 10656, 
  "▁カー": 10657, 
  "シャドーチェック": 10658, 
  "ONDA": 10659, 
  "Longsleeve": 10660, 
  "▁Frayed": 10661, 
  "▁Tina": 10662, 
  "ハイテンション": 10663, 
  "▁Cooper": 10664, 
  "▁シフォンフリル": 10665, 
  "▁HOODY": 10666, 
  "対策": 10667, 
  "ケーブルクルーニット": 10668, 
  "▁ヘムライン": 10669, 
  "ボーイズ": 10670, 
  "481": 10671, 
  "▁Dylan": 10672, 
  "▁オリプリ": 10673, 
  "parc": 10674, 
  "turtleneck": 10675, 
  "Kaschmirpullover": 10676, 
  "NTJBW": 10677, 
  "ERON": 10678, 
  "▁Electr": 10679, 
  "ストライプスキッパーシャツ": 10680, 
  "▁length": 10681, 
  "英字印花圓領棉質": 10682, 
  "▁カットツイード": 10683, 
  "▁スター総柄": 10684, 
  "▁Fast": 10685, 
  "ギャバジン": 10686, 
  "ボタンレス": 10687, 
  "デニムスリム": 10688, 
  "▁MARINE": 10689, 
  "▁ボーダー切替": 10690, 
  "ッキ": 10691, 
  "レインボー": 10692, 
  "▁Leinenhose": 10693, 
  "▁楽ちん": 10694, 
  "ウールカシミヤ": 10695, 
  "pi": 10696, 
  "ギャザーチュニック": 10697, 
  "バッグ": 10698, 
  "ワイドリブニットソー": 10699, 
  "▁FRAPBOIS": 10700, 
  "▁Jedwabna": 10701, 
  "▁Knopfen": 10702, 
  "▁フォーマルドレス": 10703, 
  "キラ": 10704, 
  "▁Szorty": 10705, 
  "アラン柄": 10706, 
  "▁ELIZABETH": 10707, 
  "スティック": 10708, 
  "裾リブ": 10709, 
  "▁ALPACA": 10710, 
  "スカラップニット": 10711, 
  "FF": 10712, 
  "▁Win": 10713, 
  "▁スキッパーネック": 10714, 
  "ANG": 10715, 
  "▁Trip": 10716, 
  "▁ベーシックカーディガン": 10717, 
  "▁高密度": 10718, 
  "ペインター": 10719, 
  "転": 10720, 
  "Billie": 10721, 
  "▁カリフォルニアコットン": 10722, 
  "▁Fi": 10723, 
  "hi": 10724, 
  "リバース": 10725, 
  "ソデリボン": 10726, 
  "120": 10727, 
  "ヤーンニット": 10728, 
  "▁Era": 10729, 
  "透かしニット": 10730, 
  "ノースリーブチュニック": 10731, 
  "スウェットシャツ": 10732, 
  "elly": 10733, 
  "unch": 10734, 
  "前後着": 10735, 
  "ブルーデニムパンツ": 10736, 
  "4660": 10737, 
  "ベロアワンピース": 10738, 
  "ota": 10739, 
  "type": 10740, 
  "▁Mango": 10741, 
  "▁Alexandr": 10742, 
  "ショートトレンチコート": 10743, 
  "Off": 10744, 
  "▁中綿入り": 10745, 
  "▁ベースボール": 10746, 
  "uvyoutoo": 10747, 
  "▁Ocea": 10748, 
  "▁LOOM": 10749, 
  "▁ケーブル編": 10750, 
  "Kapuzenpullover": 10751, 
  "▁デザインブラウス": 10752, 
  "▁cuff": 10753, 
  "▁率性": 10754, 
  "グリーン": 10755, 
  "ade": 10756, 
  "▁Dagger": 10757, 
  "▁グランジ": 10758, 
  "デニムチェスターコート": 10759, 
  "プリントパンツ": 10760, 
  "ティアードブラウス": 10761, 
  "サッシュベルト付": 10762, 
  "▁LACOSTE": 10763, 
  "77】": 10764, 
  "▁Broke": 10765, 
  "▁30\"": 10766, 
  "▁シア": 10767, 
  "ワイドニット": 10768, 
  "▁チ": 10769, 
  "▁ミックスカラー": 10770, 
  "抜染": 10771, 
  "▁シック": 10772, 
  "▁Respons": 10773, 
  "▁Bas": 10774, 
  "パーク": 10775, 
  "▁デニ": 10776, 
  "ZIPPK": 10777, 
  "▁Skjortklanning": 10778, 
  "CLER": 10779, 
  "▁POC": 10780, 
  "ネット": 10781, 
  "ストライプニット": 10782, 
  "▁BIJOU": 10783, 
  "風ブラウス": 10784, 
  "PN": 10785, 
  "ide": 10786, 
  "02_": 10787, 
  "▁Ladder": 10788, 
  "替": 10789, 
  "▁plecami": 10790, 
  "▁fleece": 10791, 
  "トラック": 10792, 
  "▁Shame": 10793, 
  "ない": 10794, 
  "▁消しプリーツ": 10795, 
  "滿版印花": 10796, 
  "ジャケット風": 10797, 
  "▁シンプルカットソー": 10798, 
  "タイトミニ": 10799, 
  "▁エア": 10800, 
  "▁OL": 10801, 
  "▁Zoo": 10802, 
  "BDPO": 10803, 
  "uffer": 10804, 
  "▁Shaper": 10805, 
  "光": 10806, 
  "▁Comme": 10807, 
  "▁Korall": 10808, 
  "▁Take": 10809, 
  "バックロングスカート": 10810, 
  "紅色": 10811, 
  "ロングフレアスカート": 10812, 
  "NICE": 10813, 
  "ロングブラウス": 10814, 
  "▁袖口リボン": 10815, 
  "▁フラッグ": 10816, 
  "nga": 10817, 
  "バルーンスリーブプルオーバー": 10818, 
  "ウエストゴムパンツ": 10819, 
  "eur": 10820, 
  "▁ワイドリブノースリーブ": 10821, 
  "▁embroidery": 10822, 
  "ラメニットプルオーバー": 10823, 
  "モックネックプルオーバー": 10824, 
  "▁サイドポケット": 10825, 
  "▁Corp": 10826, 
  "▁Dias": 10827, 
  "▁Amelie": 10828, 
  "▁フェアアイル": 10829, 
  "▁ans": 10830, 
  "▁アーミー": 10831, 
  "ign": 10832, 
  "▁Sam": 10833, 
  "are": 10834, 
  "nana": 10835, 
  "プリーツパンツ": 10836, 
  "スケ": 10837, 
  "Pride": 10838, 
  "rrot": 10839, 
  "▁tranings": 10840, 
  "ケーブルタートル": 10841, 
  "▁em": 10842, 
  "微": 10843, 
  "▁ピュア": 10844, 
  "シングルライダース": 10845, 
  "lam": 10846, 
  "▁スウェード調": 10847, 
  "▁4-17": 10848, 
  "gestreift": 10849, 
  "▁color": 10850, 
  "▁柄アソート": 10851, 
  "Text": 10852, 
  "TURE": 10853, 
  "デシンシャツ": 10854, 
  "甘": 10855, 
  "▁JJF": 10856, 
  "▁haftem": 10857, 
  "▁SCALLOP": 10858, 
  "▁カバーオール": 10859, 
  "▁プレミアムフィット": 10860, 
  "▁ノ": 10861, 
  "ディア": 10862, 
  "▁ワークシャツ": 10863, 
  "▁洗える": 10864, 
  "Mickey": 10865, 
  "パイ": 10866, 
  "圖": 10867, 
  "▁KOLOR": 10868, 
  "021": 10869, 
  "nguin": 10870, 
  "▁przy": 10871, 
  "▁UNIF": 10872, 
  "▁Letter": 10873, 
  "羽織り": 10874, 
  "▁スタンドネック": 10875, 
  "ライトコート": 10876, 
  "ara": 10877, 
  "記": 10878, 
  "軍裝外套": 10879, 
  "-1610": 10880, 
  "▁XS": 10881, 
  "エン": 10882, 
  "ヘンリーネックプルオーバー": 10883, 
  "ビーチ": 10884, 
  "▁Smooth": 10885, 
  "ボアリバーシブル": 10886, 
  "▁ウエスタンシャツ": 10887, 
  "79】": 10888, 
  "▁畦編": 10889, 
  "▁FABRIC": 10890, 
  "▁コットンロングカーディガン": 10891, 
  "▁クリ": 10892, 
  "Cut": 10893, 
  "▁TH": 10894, 
  "▁Mia": 10895, 
  "90】": 10896, 
  "▁Rev": 10897, 
  "stretch": 10898, 
  "フィッシャーマン": 10899, 
  "▁DARK": 10900, 
  "スモッグ": 10901, 
  "▁針織": 10902, 
  "▁roz": 10903, 
  "▁Drapierung": 10904, 
  "▁Missy": 10905, 
  "▁camel": 10906, 
  "ミディフレアスカート": 10907, 
  "サイドタックワンピース": 10908, 
  "khaki": 10909, 
  "▁Taillen": 10910, 
  "ai": 10911, 
  "▁Eat": 10912, 
  "▁MOTION": 10913, 
  "燈芯絨": 10914, 
  "93】": 10915, 
  "▁Dion": 10916, 
  "ジャガード織り": 10917, 
  "▁lader": 10918, 
  "▁ninon": 10919, 
  "▁ブラッシュ": 10920, 
  "mit": 10921, 
  "ネックルーズ": 10922, 
  "▁オーガン": 10923, 
  "▁ZippAc": 10924, 
  "▁体型カバー": 10925, 
  "ブーケプリント": 10926, 
  "▁RP": 10927, 
  "褶": 10928, 
  "▁Ruit": 10929, 
  "モザイク": 10930, 
  "▁ハイショク": 10931, 
  "補": 10932, 
  "▁レイヤー": 10933, 
  "▁Dahli": 10934, 
  "求心": 10935, 
  "▁キャミワンピース": 10936, 
  "Einsatz": 10937, 
  "shire": 10938, 
  "▁フロントドレープ": 10939, 
  "JAPAN": 10940, 
  "▁Snowflake": 10941, 
  "▁Schleife": 10942, 
  "▁グレンチェック柄": 10943, 
  "キャミタンク": 10944, 
  "▁PONCHO": 10945, 
  "▁STARS": 10946, 
[...]
